{
  "version": "1.0",
  "truncation": null,
  "padding": null,
  "added_tokens": [
    {
      "id": 0,
      "content": "[PAD]",
      "single_word": false,
      "lstrip": false,
      "rstrip": false,
      "normalized": false,
      "special": true
    },
    {
      "id": 1,
      "content": "[UNK]",
      "single_word": false,
      "lstrip": false,
      "rstrip": false,
      "normalized": false,
      "special": true
    },
    {
      "id": 2,
      "content": "[CLS]",
      "single_word": false,
      "lstrip": false,
      "rstrip": false,
      "normalized": false,
      "special": true
    },
    {
      "id": 3,
      "content": "[SEP]",
      "single_word": false,
      "lstrip": false,
      "rstrip": false,
      "normalized": false,
      "special": true
    },
    {
      "id": 4,
      "content": "[MASK]",
      "single_word": false,
      "lstrip": false,
      "rstrip": false,
      "normalized": false,
      "special": true
    }
  ],
  "normalizer": {
    "type": "Sequence",
    "normalizers": [
      {
        "type": "NFKC"
      },
      {
        "type": "Strip",
        "strip_left": true,
        "strip_right": true
      }
    ]
  },
  "pre_tokenizer": {
    "type": "Sequence",
    "pretokenizers": [
      {
        "type": "WhitespaceSplit"
      },
      {
        "type": "Punctuation",
        "behavior": "Isolated"
      }
    ]
  },
  "post_processor": {
    "type": "TemplateProcessing",
    "single": [
      {
        "SpecialToken": {
          "id": "[CLS]",
          "type_id": 0
        }
      },
      {
        "Sequence": {
          "id": "A",
          "type_id": 0
        }
      },
      {
        "SpecialToken": {
          "id": "[SEP]",
          "type_id": 0
        }
      }
    ],
    "pair": [
      {
        "SpecialToken": {
          "id": "[CLS]",
          "type_id": 0
        }
      },
      {
        "Sequence": {
          "id": "A",
          "type_id": 0
        }
      },
      {
        "SpecialToken": {
          "id": "[SEP]",
          "type_id": 0
        }
      },
      {
        "Sequence": {
          "id": "B",
          "type_id": 1
        }
      },
      {
        "SpecialToken": {
          "id": "[SEP]",
          "type_id": 1
        }
      }
    ],
    "special_tokens": {
      "[CLS]": {
        "id": "[CLS]",
        "ids": [
          1
        ],
        "tokens": [
          "[CLS]"
        ]
      },
      "[SEP]": {
        "id": "[SEP]",
        "ids": [
          2
        ],
        "tokens": [
          "[SEP]"
        ]
      }
    }
  },
  "decoder": null,
  "model": {
    "type": "BPE",
    "dropout": null,
    "unk_token": null,
    "continuing_subword_prefix": null,
    "end_of_word_suffix": null,
    "fuse_unk": false,
    "byte_fallback": false,
    "ignore_merges": false,
    "vocab": {
      "[PAD]": 0,
      "[UNK]": 1,
      "[CLS]": 2,
      "[SEP]": 3,
      "[MASK]": 4,
      "\n": 5,
      " ": 6,
      "!": 7,
      "\"": 8,
      "#": 9,
      "$": 10,
      "%": 11,
      "&": 12,
      "'": 13,
      "(": 14,
      ")": 15,
      "*": 16,
      "+": 17,
      ",": 18,
      "-": 19,
      ".": 20,
      "/": 21,
      "0": 22,
      "1": 23,
      "2": 24,
      "3": 25,
      "4": 26,
      "5": 27,
      "6": 28,
      "7": 29,
      "8": 30,
      "9": 31,
      ":": 32,
      ";": 33,
      "<": 34,
      "=": 35,
      ">": 36,
      "?": 37,
      "@": 38,
      "A": 39,
      "B": 40,
      "C": 41,
      "D": 42,
      "E": 43,
      "F": 44,
      "G": 45,
      "H": 46,
      "I": 47,
      "J": 48,
      "K": 49,
      "L": 50,
      "M": 51,
      "N": 52,
      "O": 53,
      "P": 54,
      "Q": 55,
      "R": 56,
      "S": 57,
      "T": 58,
      "U": 59,
      "V": 60,
      "W": 61,
      "X": 62,
      "Y": 63,
      "Z": 64,
      "[": 65,
      "\\": 66,
      "]": 67,
      "^": 68,
      "_": 69,
      "`": 70,
      "a": 71,
      "b": 72,
      "c": 73,
      "d": 74,
      "e": 75,
      "f": 76,
      "g": 77,
      "h": 78,
      "i": 79,
      "j": 80,
      "k": 81,
      "l": 82,
      "m": 83,
      "n": 84,
      "o": 85,
      "p": 86,
      "q": 87,
      "r": 88,
      "s": 89,
      "t": 90,
      "u": 91,
      "v": 92,
      "w": 93,
      "x": 94,
      "y": 95,
      "z": 96,
      "{": 97,
      "|": 98,
      "}": 99,
      "~": 100,
      "": 101,
      "": 102,
      "": 103,
      "": 104,
      "": 105,
      "": 106,
      "": 107,
      "": 108,
      "": 109,
      "": 110,
      "": 111,
      "": 112,
      "": 113,
      "": 114,
      "": 115,
      "¡": 116,
      "¢": 117,
      "£": 118,
      "¤": 119,
      "¥": 120,
      "¦": 121,
      "§": 122,
      "©": 123,
      "«": 124,
      "¬": 125,
      "­": 126,
      "®": 127,
      "°": 128,
      "±": 129,
      "¶": 130,
      "·": 131,
      "»": 132,
      "¿": 133,
      "À": 134,
      "Á": 135,
      "Â": 136,
      "Ã": 137,
      "Ä": 138,
      "Å": 139,
      "Æ": 140,
      "Ç": 141,
      "È": 142,
      "É": 143,
      "Ê": 144,
      "Ë": 145,
      "Ì": 146,
      "Í": 147,
      "Î": 148,
      "Ï": 149,
      "Ð": 150,
      "Ñ": 151,
      "Ò": 152,
      "Ó": 153,
      "Ô": 154,
      "Õ": 155,
      "Ö": 156,
      "×": 157,
      "Ø": 158,
      "Ù": 159,
      "Ú": 160,
      "Û": 161,
      "Ü": 162,
      "Ý": 163,
      "Þ": 164,
      "ß": 165,
      "à": 166,
      "á": 167,
      "â": 168,
      "ã": 169,
      "ä": 170,
      "å": 171,
      "æ": 172,
      "ç": 173,
      "è": 174,
      "é": 175,
      "ê": 176,
      "ë": 177,
      "ì": 178,
      "í": 179,
      "î": 180,
      "ï": 181,
      "ð": 182,
      "ñ": 183,
      "ò": 184,
      "ó": 185,
      "ô": 186,
      "õ": 187,
      "ö": 188,
      "÷": 189,
      "ø": 190,
      "ù": 191,
      "ú": 192,
      "û": 193,
      "ü": 194,
      "ý": 195,
      "þ": 196,
      "ÿ": 197,
      "Ā": 198,
      "ā": 199,
      "ă": 200,
      "Ą": 201,
      "ą": 202,
      "Ć": 203,
      "ć": 204,
      "Č": 205,
      "č": 206,
      "Ď": 207,
      "ď": 208,
      "Đ": 209,
      "đ": 210,
      "Ē": 211,
      "ē": 212,
      "ĕ": 213,
      "Ė": 214,
      "ė": 215,
      "ę": 216,
      "ě": 217,
      "ĝ": 218,
      "Ğ": 219,
      "ğ": 220,
      "ġ": 221,
      "ģ": 222,
      "ĥ": 223,
      "ħ": 224,
      "ĩ": 225,
      "Ī": 226,
      "ī": 227,
      "Ĭ": 228,
      "ĭ": 229,
      "Į": 230,
      "į": 231,
      "İ": 232,
      "ı": 233,
      "Ĵ": 234,
      "Ķ": 235,
      "ķ": 236,
      "Ĺ": 237,
      "ĺ": 238,
      "ļ": 239,
      "Ľ": 240,
      "ľ": 241,
      "Ł": 242,
      "ł": 243,
      "ń": 244,
      "ņ": 245,
      "ň": 246,
      "ŋ": 247,
      "Ō": 248,
      "ō": 249,
      "ŏ": 250,
      "ő": 251,
      "Œ": 252,
      "œ": 253,
      "ŕ": 254,
      "Ř": 255,
      "ř": 256,
      "Ś": 257,
      "ś": 258,
      "Ŝ": 259,
      "ŝ": 260,
      "Ş": 261,
      "ş": 262,
      "Š": 263,
      "š": 264,
      "Ţ": 265,
      "ţ": 266,
      "Ť": 267,
      "ť": 268,
      "ŧ": 269,
      "ũ": 270,
      "Ū": 271,
      "ū": 272,
      "ŭ": 273,
      "ů": 274,
      "ű": 275,
      "Ų": 276,
      "ų": 277,
      "Ÿ": 278,
      "Ź": 279,
      "ź": 280,
      "Ż": 281,
      "ż": 282,
      "Ž": 283,
      "ž": 284,
      "Ƃ": 285,
      "Ƅ": 286,
      "ƅ": 287,
      "Ɖ": 288,
      "Ƌ": 289,
      "Ə": 290,
      "Ɛ": 291,
      "ƒ": 292,
      "Ɩ": 293,
      "Ɨ": 294,
      "ơ": 295,
      "ƥ": 296,
      "Ʀ": 297,
      "Ƨ": 298,
      "ƨ": 299,
      "Ʃ": 300,
      "ƪ": 301,
      "ƫ": 302,
      "Ư": 303,
      "ư": 304,
      "ƺ": 305,
      "ƾ": 306,
      "ǀ": 307,
      "ǁ": 308,
      "ǎ": 309,
      "ǐ": 310,
      "ǒ": 311,
      "ǔ": 312,
      "ǚ": 313,
      "Ǜ": 314,
      "ǟ": 315,
      "ǧ": 316,
      "Ǫ": 317,
      "ǵ": 318,
      "ǻ": 319,
      "Ǿ": 320,
      "ǿ": 321,
      "Ȃ": 322,
      "ȃ": 323,
      "ȇ": 324,
      "ȉ": 325,
      "ȋ": 326,
      "Ȍ": 327,
      "ȍ": 328,
      "ȑ": 329,
      "Ȓ": 330,
      "ȕ": 331,
      "Ȗ": 332,
      "ȗ": 333,
      "Ș": 334,
      "ș": 335,
      "Ț": 336,
      "ț": 337,
      "Ȝ": 338,
      "Ȟ": 339,
      "ȟ": 340,
      "Ȥ": 341,
      "Ȧ": 342,
      "ȧ": 343,
      "ȷ": 344,
      "Ƚ": 345,
      "Ⱦ": 346,
      "ɀ": 347,
      "ɂ": 348,
      "Ƀ": 349,
      "Ʌ": 350,
      "Ɏ": 351,
      "ɐ": 352,
      "ɑ": 353,
      "ɒ": 354,
      "ɔ": 355,
      "ɕ": 356,
      "ɖ": 357,
      "ɗ": 358,
      "ɘ": 359,
      "ə": 360,
      "ɚ": 361,
      "ɛ": 362,
      "ɜ": 363,
      "ɝ": 364,
      "ɞ": 365,
      "ɟ": 366,
      "ɠ": 367,
      "ɡ": 368,
      "ɢ": 369,
      "ɣ": 370,
      "ɤ": 371,
      "ɥ": 372,
      "ɦ": 373,
      "ɧ": 374,
      "ɨ": 375,
      "ɩ": 376,
      "ɪ": 377,
      "ɫ": 378,
      "ɱ": 379,
      "ɲ": 380,
      "ɵ": 381,
      "ɹ": 382,
      "ɾ": 383,
      "ʀ": 384,
      "ʁ": 385,
      "ʂ": 386,
      "ʃ": 387,
      "ʉ": 388,
      "ʊ": 389,
      "ʋ": 390,
      "ʌ": 391,
      "ʎ": 392,
      "ʏ": 393,
      "ʑ": 394,
      "ʒ": 395,
      "ʔ": 396,
      "ʕ": 397,
      "ʖ": 398,
      "ʘ": 399,
      "ʟ": 400,
      "ʦ": 401,
      "ʹ": 402,
      "ʺ": 403,
      "ʻ": 404,
      "ʼ": 405,
      "ʽ": 406,
      "ʾ": 407,
      "ʿ": 408,
      "˄": 409,
      "ˆ": 410,
      "ˈ": 411,
      "ˉ": 412,
      "ˌ": 413,
      "ː": 414,
      "˖": 415,
      "˗": 416,
      "˧": 417,
      "ˮ": 418,
      "́": 419,
      "̂": 420,
      "̃": 421,
      "̄": 422,
      "̅": 423,
      "̇": 424,
      "̈": 425,
      "̊": 426,
      "̋": 427,
      "̓": 428,
      "̣": 429,
      "̥": 430,
      "̧": 431,
      "̩": 432,
      "̪": 433,
      "̮": 434,
      "̯": 435,
      "̰": 436,
      "̱": 437,
      "̲": 438,
      "̵": 439,
      "̶": 440,
      "̼": 441,
      "͜": 442,
      "͞": 443,
      "͡": 444,
      "ͭ": 445,
      "ͳ": 446,
      "ͽ": 447,
      "Ά": 448,
      "Έ": 449,
      "Ή": 450,
      "Ί": 451,
      "΋": 452,
      "Ό": 453,
      "΍": 454,
      "ΐ": 455,
      "Α": 456,
      "Β": 457,
      "Γ": 458,
      "Δ": 459,
      "Ε": 460,
      "Ζ": 461,
      "Η": 462,
      "Θ": 463,
      "Ι": 464,
      "Κ": 465,
      "Λ": 466,
      "Μ": 467,
      "Ν": 468,
      "Ξ": 469,
      "Ο": 470,
      "Π": 471,
      "Ρ": 472,
      "Σ": 473,
      "Τ": 474,
      "Υ": 475,
      "Φ": 476,
      "Χ": 477,
      "Ψ": 478,
      "Ω": 479,
      "ά": 480,
      "έ": 481,
      "ή": 482,
      "ί": 483,
      "α": 484,
      "β": 485,
      "γ": 486,
      "δ": 487,
      "ε": 488,
      "ζ": 489,
      "η": 490,
      "θ": 491,
      "ι": 492,
      "κ": 493,
      "λ": 494,
      "μ": 495,
      "ν": 496,
      "ξ": 497,
      "ο": 498,
      "π": 499,
      "ρ": 500,
      "ς": 501,
      "σ": 502,
      "τ": 503,
      "υ": 504,
      "φ": 505,
      "χ": 506,
      "ψ": 507,
      "ω": 508,
      "ϊ": 509,
      "ό": 510,
      "ύ": 511,
      "ώ": 512,
      "ϙ": 513,
      "ϛ": 514,
      "Ϝ": 515,
      "ϟ": 516,
      "Ё": 517,
      "Ђ": 518,
      "Ѓ": 519,
      "Є": 520,
      "Ѕ": 521,
      "І": 522,
      "Ј": 523,
      "Љ": 524,
      "Ў": 525,
      "А": 526,
      "Б": 527,
      "В": 528,
      "Г": 529,
      "Д": 530,
      "Е": 531,
      "Ж": 532,
      "З": 533,
      "И": 534,
      "Й": 535,
      "К": 536,
      "Л": 537,
      "М": 538,
      "Н": 539,
      "О": 540,
      "П": 541,
      "Р": 542,
      "С": 543,
      "Т": 544,
      "У": 545,
      "Ф": 546,
      "Х": 547,
      "Ц": 548,
      "Ч": 549,
      "Ш": 550,
      "Щ": 551,
      "Ъ": 552,
      "Ы": 553,
      "Ь": 554,
      "Э": 555,
      "Ю": 556,
      "Я": 557,
      "а": 558,
      "б": 559,
      "в": 560,
      "г": 561,
      "д": 562,
      "е": 563,
      "ж": 564,
      "з": 565,
      "и": 566,
      "й": 567,
      "к": 568,
      "л": 569,
      "м": 570,
      "н": 571,
      "о": 572,
      "п": 573,
      "р": 574,
      "с": 575,
      "т": 576,
      "у": 577,
      "ф": 578,
      "х": 579,
      "ц": 580,
      "ч": 581,
      "ш": 582,
      "щ": 583,
      "ъ": 584,
      "ы": 585,
      "ь": 586,
      "э": 587,
      "ю": 588,
      "я": 589,
      "ѐ": 590,
      "ё": 591,
      "є": 592,
      "ѕ": 593,
      "і": 594,
      "ї": 595,
      "ј": 596,
      "љ": 597,
      "њ": 598,
      "ќ": 599,
      "џ": 600,
      "ѡ": 601,
      "ѣ": 602,
      "Ѥ": 603,
      "ѥ": 604,
      "Ѧ": 605,
      "ѵ": 606,
      "Ѹ": 607,
      "ѹ": 608,
      "Ѻ": 609,
      "ѻ": 610,
      "Ѽ": 611,
      "Ҁ": 612,
      "҉": 613,
      "Ґ": 614,
      "ґ": 615,
      "ғ": 616,
      "җ": 617,
      "ҙ": 618,
      "Қ": 619,
      "қ": 620,
      "ң": 621,
      "ҧ": 622,
      "ҩ": 623,
      "Ҫ": 624,
      "ҫ": 625,
      "Ҭ": 626,
      "ҭ": 627,
      "Ұ": 628,
      "ұ": 629,
      "ҳ": 630,
      "Ҵ": 631,
      "ҵ": 632,
      "ҷ": 633,
      "Һ": 634,
      "Ҿ": 635,
      "ӄ": 636,
      "ӈ": 637,
      "Ә": 638,
      "ә": 639,
      "ӛ": 640,
      "ӡ": 641,
      "ӣ": 642,
      "ӧ": 643,
      "ӷ": 644,
      "Ӹ": 645,
      "ӽ": 646,
      "Ԁ": 647,
      "ԁ": 648,
      "Ԑ": 649,
      "ԑ": 650,
      "ԥ": 651,
      "Ա": 652,
      "Բ": 653,
      "Գ": 654,
      "Դ": 655,
      "Ե": 656,
      "Կ": 657,
      "Հ": 658,
      "Ճ": 659,
      "Մ": 660,
      "Յ": 661,
      "Ն": 662,
      "Չ": 663,
      "Պ": 664,
      "Ս": 665,
      "Տ": 666,
      "Ք": 667,
      "Օ": 668,
      "՛": 669,
      "ա": 670,
      "բ": 671,
      "գ": 672,
      "դ": 673,
      "ե": 674,
      "զ": 675,
      "է": 676,
      "ը": 677,
      "թ": 678,
      "ի": 679,
      "լ": 680,
      "խ": 681,
      "ծ": 682,
      "կ": 683,
      "հ": 684,
      "ղ": 685,
      "ճ": 686,
      "մ": 687,
      "յ": 688,
      "ն": 689,
      "շ": 690,
      "ո": 691,
      "չ": 692,
      "պ": 693,
      "ջ": 694,
      "ս": 695,
      "վ": 696,
      "տ": 697,
      "ր": 698,
      "ց": 699,
      "ւ": 700,
      "ք": 701,
      "օ": 702,
      "։": 703,
      "֍": 704,
      "֗": 705,
      "֧": 706,
      "ְ": 707,
      "ֲ": 708,
      "ִ": 709,
      "ֵ": 710,
      "ֶ": 711,
      "ַ": 712,
      "ָ": 713,
      "ֹ": 714,
      "ּ": 715,
      "ֽ": 716,
      "ׁ": 717,
      "ׂ": 718,
      "א": 719,
      "ב": 720,
      "ג": 721,
      "ד": 722,
      "ה": 723,
      "ו": 724,
      "ז": 725,
      "ח": 726,
      "ט": 727,
      "י": 728,
      "ך": 729,
      "כ": 730,
      "ל": 731,
      "ם": 732,
      "מ": 733,
      "ן": 734,
      "נ": 735,
      "ס": 736,
      "ע": 737,
      "ף": 738,
      "פ": 739,
      "ץ": 740,
      "צ": 741,
      "ק": 742,
      "ר": 743,
      "ש": 744,
      "ת": 745,
      "׳": 746,
      "׿": 747,
      "،": 748,
      "؛": 749,
      "؟": 750,
      "ؠ": 751,
      "ء": 752,
      "آ": 753,
      "أ": 754,
      "ؤ": 755,
      "إ": 756,
      "ئ": 757,
      "ا": 758,
      "ب": 759,
      "ة": 760,
      "ت": 761,
      "ث": 762,
      "ج": 763,
      "ح": 764,
      "خ": 765,
      "د": 766,
      "ذ": 767,
      "ر": 768,
      "ز": 769,
      "س": 770,
      "ش": 771,
      "ص": 772,
      "ض": 773,
      "ط": 774,
      "ظ": 775,
      "ع": 776,
      "غ": 777,
      "ـ": 778,
      "ف": 779,
      "ق": 780,
      "ك": 781,
      "ل": 782,
      "م": 783,
      "ن": 784,
      "ه": 785,
      "و": 786,
      "ى": 787,
      "ي": 788,
      "ً": 789,
      "ٌ": 790,
      "َ": 791,
      "ُ": 792,
      "ِ": 793,
      "ّ": 794,
      "ْ": 795,
      "ٔ": 796,
      "ٖ": 797,
      "٠": 798,
      "١": 799,
      "٢": 800,
      "٣": 801,
      "٤": 802,
      "٥": 803,
      "٦": 804,
      "٧": 805,
      "٨": 806,
      "٩": 807,
      "٪": 808,
      "ٱ": 809,
      "ٹ": 810,
      "پ": 811,
      "چ": 812,
      "ړ": 813,
      "ژ": 814,
      "ڞ": 815,
      "ک": 816,
      "گ": 817,
      "ں": 818,
      "ھ": 819,
      "ۀ": 820,
      "ہ": 821,
      "ۂ": 822,
      "ی": 823,
      "ې": 824,
      "ے": 825,
      "۔": 826,
      "ە": 827,
      "ۖ": 828,
      "ۛ": 829,
      "۝": 830,
      "۰": 831,
      "۱": 832,
      "۲": 833,
      "۳": 834,
      "۵": 835,
      "۶": 836,
      "۷": 837,
      "۸": 838,
      "۹": 839,
      "܀": 840,
      "ܐ": 841,
      "ܒ": 842,
      "ܕ": 843,
      "ܘ": 844,
      "ܙ": 845,
      "ܚ": 846,
      "ܝ": 847,
      "ܠ": 848,
      "ܡ": 849,
      "ܥ": 850,
      "ܦ": 851,
      "ܨ": 852,
      "ܪ": 853,
      "ܫ": 854,
      "ܬ": 855,
      "ܼ": 856,
      "݆": 857,
      "݇": 858,
      "ݙ": 859,
      "ߨ": 860,
      "࢈": 861,
      "ं": 862,
      "ः": 863,
      "अ": 864,
      "आ": 865,
      "क": 866,
      "ख": 867,
      "ग": 868,
      "ज": 869,
      "ट": 870,
      "ड": 871,
      "ण": 872,
      "त": 873,
      "द": 874,
      "ध": 875,
      "न": 876,
      "प": 877,
      "ब": 878,
      "भ": 879,
      "म": 880,
      "य": 881,
      "र": 882,
      "ल": 883,
      "व": 884,
      "श": 885,
      "ष": 886,
      "स": 887,
      "ह": 888,
      "़": 889,
      "ा": 890,
      "ि": 891,
      "ी": 892,
      "ु": 893,
      "ृ": 894,
      "े": 895,
      "ै": 896,
      "ो": 897,
      "्": 898,
      "ॐ": 899,
      "।": 900,
      "॥": 901,
      "०": 902,
      "१": 903,
      "२": 904,
      "८": 905,
      "ং": 906,
      "আ": 907,
      "ই": 908,
      "এ": 909,
      "ক": 910,
      "গ": 911,
      "ঙ": 912,
      "জ": 913,
      "ট": 914,
      "ড": 915,
      "দ": 916,
      "ন": 917,
      "প": 918,
      "ব": 919,
      "ভ": 920,
      "ম": 921,
      "য": 922,
      "র": 923,
      "ল": 924,
      "শ": 925,
      "স": 926,
      "়": 927,
      "া": 928,
      "ি": 929,
      "ু": 930,
      "ে": 931,
      "্": 932,
      "০": 933,
      "১": 934,
      "২": 935,
      "৬": 936,
      "৭": 937,
      "৮": 938,
      "৯": 939,
      "ਦ": 940,
      "ਬ": 941,
      "ਮ": 942,
      "ਰ": 943,
      "ਸ": 944,
      "ਹ": 945,
      "ਾ": 946,
      "ਿ": 947,
      "ੰ": 948,
      "ત": 949,
      "ય": 950,
      "ુ": 951,
      "્": 952,
      "இ": 953,
      "க": 954,
      "ங": 955,
      "ச": 956,
      "ட": 957,
      "த": 958,
      "ந": 959,
      "ன": 960,
      "ப": 961,
      "ம": 962,
      "ய": 963,
      "ற": 964,
      "ல": 965,
      "ள": 966,
      "ழ": 967,
      "வ": 968,
      "ஸ": 969,
      "ா": 970,
      "ி": 971,
      "ீ": 972,
      "ு": 973,
      "ை": 974,
      "்": 975,
      "ం": 976,
      "ఇ": 977,
      "ఉ": 978,
      "ఎ": 979,
      "క": 980,
      "గ": 981,
      "ఘ": 982,
      "చ": 983,
      "జ": 984,
      "ట": 985,
      "డ": 986,
      "త": 987,
      "ద": 988,
      "ధ": 989,
      "న": 990,
      "ప": 991,
      "బ": 992,
      "మ": 993,
      "య": 994,
      "ర": 995,
      "ల": 996,
      "వ": 997,
      "స": 998,
      "ా": 999,
      "ి": 1000,
      "ీ": 1001,
      "ు": 1002,
      "ె": 1003,
      "ే": 1004,
      "ై": 1005,
      "ో": 1006,
      "్": 1007,
      "ൌ": 1008,
      "ං": 1009,
      "ක": 1010,
      "බ": 1011,
      "ම": 1012,
      "ර": 1013,
      "ල": 1014,
      "ව": 1015,
      "ශ": 1016,
      "හ": 1017,
      "්": 1018,
      "ා": 1019,
      "ැ": 1020,
      "ී": 1021,
      "ු": 1022,
      "ก": 1023,
      "ข": 1024,
      "ค": 1025,
      "ง": 1026,
      "จ": 1027,
      "ช": 1028,
      "ณ": 1029,
      "ด": 1030,
      "ต": 1031,
      "ถ": 1032,
      "ท": 1033,
      "ธ": 1034,
      "น": 1035,
      "บ": 1036,
      "ป": 1037,
      "ผ": 1038,
      "พ": 1039,
      "ฟ": 1040,
      "ภ": 1041,
      "ม": 1042,
      "ย": 1043,
      "ร": 1044,
      "ล": 1045,
      "ว": 1046,
      "ศ": 1047,
      "ษ": 1048,
      "ส": 1049,
      "ห": 1050,
      "อ": 1051,
      "ะ": 1052,
      "ั": 1053,
      "า": 1054,
      "ิ": 1055,
      "ี": 1056,
      "ึ": 1057,
      "ื": 1058,
      "ุ": 1059,
      "ู": 1060,
      "฿": 1061,
      "เ": 1062,
      "แ": 1063,
      "โ": 1064,
      "ใ": 1065,
      "ไ": 1066,
      "็": 1067,
      "่": 1068,
      "้": 1069,
      "๊": 1070,
      "ํ": 1071,
      "ຄ": 1072,
      "ງ": 1073,
      "ທ": 1074,
      "ນ": 1075,
      "ປ": 1076,
      "ລ": 1077,
      "ວ": 1078,
      "ສ": 1079,
      "ຫ": 1080,
      "ະ": 1081,
      "າ": 1082,
      "ແ": 1083,
      "່": 1084,
      "་": 1085,
      "ག": 1086,
      "ང": 1087,
      "ད": 1088,
      "ན": 1089,
      "བ": 1090,
      "མ": 1091,
      "ཚ": 1092,
      "ཛ": 1093,
      "ཞ": 1094,
      "འ": 1095,
      "ར": 1096,
      "ལ": 1097,
      "ས": 1098,
      "ཨ": 1099,
      "ི": 1100,
      "ུ": 1101,
      "ོ": 1102,
      "ྒ": 1103,
      "ྟ": 1104,
      "ྱ": 1105,
      "ྲ": 1106,
      "င": 1107,
      "ဇ": 1108,
      "ဏ": 1109,
      "တ": 1110,
      "ထ": 1111,
      "န": 1112,
      "ပ": 1113,
      "ဖ": 1114,
      "ဗ": 1115,
      "ဘ": 1116,
      "မ": 1117,
      "ရ": 1118,
      "ဟ": 1119,
      "အ": 1120,
      "ာ": 1121,
      "ိ": 1122,
      "ု": 1123,
      "ူ": 1124,
      "ေ": 1125,
      "ံ": 1126,
      "်": 1127,
      "ျ": 1128,
      "ြ": 1129,
      "ွ": 1130,
      "ა": 1131,
      "ბ": 1132,
      "გ": 1133,
      "დ": 1134,
      "ე": 1135,
      "ვ": 1136,
      "ზ": 1137,
      "თ": 1138,
      "ი": 1139,
      "კ": 1140,
      "ლ": 1141,
      "მ": 1142,
      "ნ": 1143,
      "ო": 1144,
      "პ": 1145,
      "რ": 1146,
      "ს": 1147,
      "ტ": 1148,
      "უ": 1149,
      "ფ": 1150,
      "ქ": 1151,
      "ყ": 1152,
      "შ": 1153,
      "ჩ": 1154,
      "ც": 1155,
      "ძ": 1156,
      "წ": 1157,
      "ჭ": 1158,
      "ხ": 1159,
      "ჯ": 1160,
      "ჳ": 1161,
      "ჷ": 1162,
      "ᅳ": 1163,
      "ሔ": 1164,
      "ራ": 1165,
      "ባ": 1166,
      "ብ": 1167,
      "ት": 1168,
      "ን": 1169,
      "ኢ": 1170,
      "ክ": 1171,
      "ዊ": 1172,
      "የ": 1173,
      "ያ": 1174,
      "ዮ": 1175,
      "ጵ": 1176,
      "ᐅ": 1177,
      "ᗗ": 1178,
      "ក": 1179,
      "គ": 1180,
      "ជ": 1181,
      "ឌ": 1182,
      "ត": 1183,
      "ធ": 1184,
      "ន": 1185,
      "ព": 1186,
      "ម": 1187,
      "រ": 1188,
      "ហ": 1189,
      "អ": 1190,
      "ា": 1191,
      "ិ": 1192,
      "ី": 1193,
      "ុ": 1194,
      "ៃ": 1195,
      "ំ": 1196,
      "៉": 1197,
      "៍": 1198,
      "្": 1199,
      "។": 1200,
      "᧐": 1201,
      "ᶇ": 1202,
      "ḍ": 1203,
      "ḏ": 1204,
      "ḗ": 1205,
      "ḡ": 1206,
      "Ḣ": 1207,
      "Ḥ": 1208,
      "ḥ": 1209,
      "ḩ": 1210,
      "Ḫ": 1211,
      "ḫ": 1212,
      "Ḳ": 1213,
      "ḳ": 1214,
      "ḷ": 1215,
      "ḻ": 1216,
      "Ṃ": 1217,
      "ṃ": 1218,
      "ṅ": 1219,
      "Ṇ": 1220,
      "ṇ": 1221,
      "ṓ": 1222,
      "ṛ": 1223,
      "Ṣ": 1224,
      "ṣ": 1225,
      "Ṭ": 1226,
      "ṭ": 1227,
      "ẓ": 1228,
      "ẕ": 1229,
      "ạ": 1230,
      "ả": 1231,
      "ấ": 1232,
      "ầ": 1233,
      "ẩ": 1234,
      "ẫ": 1235,
      "ậ": 1236,
      "ắ": 1237,
      "ằ": 1238,
      "ẵ": 1239,
      "ặ": 1240,
      "Ẹ": 1241,
      "ẻ": 1242,
      "ẽ": 1243,
      "ế": 1244,
      "ề": 1245,
      "ể": 1246,
      "ễ": 1247,
      "ệ": 1248,
      "ỉ": 1249,
      "ọ": 1250,
      "ỏ": 1251,
      "ố": 1252,
      "ồ": 1253,
      "ổ": 1254,
      "ỗ": 1255,
      "ộ": 1256,
      "ớ": 1257,
      "ờ": 1258,
      "ở": 1259,
      "ợ": 1260,
      "ụ": 1261,
      "ủ": 1262,
      "ứ": 1263,
      "ừ": 1264,
      "ử": 1265,
      "ữ": 1266,
      "ự": 1267,
      "ỳ": 1268,
      "ỷ": 1269,
      "ἀ": 1270,
      "ἁ": 1271,
      "ἄ": 1272,
      "Ἀ": 1273,
      "Ἁ": 1274,
      "Ἄ": 1275,
      "ἐ": 1276,
      "ἑ": 1277,
      "ἔ": 1278,
      "ἕ": 1279,
      "Ἐ": 1280,
      "Ἔ": 1281,
      "Ἕ": 1282,
      "ἡ": 1283,
      "ἤ": 1284,
      "Ἡ": 1285,
      "ἰ": 1286,
      "ἱ": 1287,
      "ἴ": 1288,
      "Ἰ": 1289,
      "ὁ": 1290,
      "ὃ": 1291,
      "ὄ": 1292,
      "Ὁ": 1293,
      "ὐ": 1294,
      "ὑ": 1295,
      "ὕ": 1296,
      "Ὠ": 1297,
      "ὰ": 1298,
      "ὲ": 1299,
      "ὴ": 1300,
      "ὶ": 1301,
      "ὸ": 1302,
      "ὺ": 1303,
      "ᾰ": 1304,
      "ῃ": 1305,
      "ῆ": 1306,
      "ῇ": 1307,
      "ῖ": 1308,
      "ῡ": 1309,
      "ῥ": 1310,
      "ῦ": 1311,
      "Ῥ": 1312,
      "ῶ": 1313,
      "ῷ": 1314,
      "​": 1315,
      "‌": 1316,
      "‍": 1317,
      "‎": 1318,
      "‐": 1319,
      "‒": 1320,
      "–": 1321,
      "—": 1322,
      "―": 1323,
      "‖": 1324,
      "‘": 1325,
      "’": 1326,
      "‚": 1327,
      "‛": 1328,
      "“": 1329,
      "”": 1330,
      "„": 1331,
      "‟": 1332,
      "†": 1333,
      "‡": 1334,
      "•": 1335,
      "‣": 1336,
      "‫": 1337,
      "‬": 1338,
      "‰": 1339,
      "′": 1340,
      "‹": 1341,
      "›": 1342,
      "※": 1343,
      "⁃": 1344,
      "⁄": 1345,
      "⁒": 1346,
      "⁝": 1347,
      "⁠": 1348,
      "⁡": 1349,
      "⁣": 1350,
      "⁬": 1351,
      "₤": 1352,
      "₥": 1353,
      "₦": 1354,
      "₩": 1355,
      "€": 1356,
      "₭": 1357,
      "₮": 1358,
      "₴": 1359,
      "₹": 1360,
      "₺": 1361,
      "₽": 1362,
      "₾": 1363,
      "₿": 1364,
      "⃝": 1365,
      "℗": 1366,
      "℧": 1367,
      "←": 1368,
      "↑": 1369,
      "→": 1370,
      "↓": 1371,
      "↔": 1372,
      "↕": 1373,
      "↗": 1374,
      "↘": 1375,
      "↪": 1376,
      "⇌": 1377,
      "⇐": 1378,
      "⇒": 1379,
      "⇓": 1380,
      "⇔": 1381,
      "⇢": 1382,
      "⇦": 1383,
      "⇧": 1384,
      "⇨": 1385,
      "⇩": 1386,
      "⇲": 1387,
      "⇻": 1388,
      "∂": 1389,
      "∅": 1390,
      "∆": 1391,
      "∇": 1392,
      "∈": 1393,
      "∉": 1394,
      "∎": 1395,
      "∏": 1396,
      "∑": 1397,
      "−": 1398,
      "∕": 1399,
      "∗": 1400,
      "∙": 1401,
      "√": 1402,
      "∝": 1403,
      "∞": 1404,
      "∣": 1405,
      "∨": 1406,
      "∩": 1407,
      "∪": 1408,
      "∫": 1409,
      "∮": 1410,
      "∴": 1411,
      "∼": 1412,
      "≅": 1413,
      "≈": 1414,
      "≛": 1415,
      "≠": 1416,
      "≡": 1417,
      "≤": 1418,
      "≥": 1419,
      "≪": 1420,
      "⊃": 1421,
      "⊆": 1422,
      "⊛": 1423,
      "⊢": 1424,
      "⋅": 1425,
      "⋆": 1426,
      "⋘": 1427,
      "⋙": 1428,
      "⋮": 1429,
      "⋯": 1430,
      "⌀": 1431,
      "⌈": 1432,
      "⌊": 1433,
      "⌋": 1434,
      "⌘": 1435,
      "⍽": 1436,
      "⎓": 1437,
      "⎛": 1438,
      "⎜": 1439,
      "⎝": 1440,
      "⎞": 1441,
      "⎟": 1442,
      "⎠": 1443,
      "⎧": 1444,
      "⎨": 1445,
      "⎩": 1446,
      "⎪": 1447,
      "⎯": 1448,
      "⏩": 1449,
      "⏰": 1450,
      "⏱": 1451,
      "⏳": 1452,
      "␠": 1453,
      "␢": 1454,
      "␣": 1455,
      "│": 1456,
      "┌": 1457,
      "┐": 1458,
      "└": 1459,
      "┘": 1460,
      "═": 1461,
      "╬": 1462,
      "█": 1463,
      "▌": 1464,
      "□": 1465,
      "▪": 1466,
      "▫": 1467,
      "▬": 1468,
      "▲": 1469,
      "△": 1470,
      "▶": 1471,
      "▸": 1472,
      "▻": 1473,
      "▼": 1474,
      "▾": 1475,
      "◀": 1476,
      "◄": 1477,
      "◆": 1478,
      "◈": 1479,
      "◊": 1480,
      "○": 1481,
      "◌": 1482,
      "◎": 1483,
      "●": 1484,
      "◗": 1485,
      "◘": 1486,
      "◣": 1487,
      "◦": 1488,
      "◯": 1489,
      "◼": 1490,
      "◾": 1491,
      "☀": 1492,
      "☂": 1493,
      "★": 1494,
      "☆": 1495,
      "☊": 1496,
      "☎": 1497,
      "☐": 1498,
      "☑": 1499,
      "☕": 1500,
      "☘": 1501,
      "☛": 1502,
      "☝": 1503,
      "☟": 1504,
      "☪": 1505,
      "☯": 1506,
      "☰": 1507,
      "☹": 1508,
      "☺": 1509,
      "☼": 1510,
      "♀": 1511,
      "♂": 1512,
      "♈": 1513,
      "♉": 1514,
      "♊": 1515,
      "♋": 1516,
      "♌": 1517,
      "♍": 1518,
      "♎": 1519,
      "♏": 1520,
      "♐": 1521,
      "♑": 1522,
      "♒": 1523,
      "♓": 1524,
      "♚": 1525,
      "♛": 1526,
      "♞": 1527,
      "♟": 1528,
      "♠": 1529,
      "♡": 1530,
      "♣": 1531,
      "♤": 1532,
      "♥": 1533,
      "♦": 1534,
      "♨": 1535,
      "♪": 1536,
      "♫": 1537,
      "♭": 1538,
      "♻": 1539,
      "♾": 1540,
      "⚒": 1541,
      "⚓": 1542,
      "⚔": 1543,
      "⚕": 1544,
      "⚖": 1545,
      "⚗": 1546,
      "⚙": 1547,
      "⚜": 1548,
      "⚠": 1549,
      "⚡": 1550,
      "⚧": 1551,
      "⚪": 1552,
      "⚽": 1553,
      "⚾": 1554,
      "⛅": 1555,
      "⛈": 1556,
      "⛏": 1557,
      "⛔": 1558,
      "⛽": 1559,
      "✂": 1560,
      "✅": 1561,
      "✆": 1562,
      "✈": 1563,
      "✉": 1564,
      "✊": 1565,
      "✋": 1566,
      "✌": 1567,
      "✍": 1568,
      "✎": 1569,
      "✏": 1570,
      "✐": 1571,
      "✓": 1572,
      "✔": 1573,
      "✖": 1574,
      "✘": 1575,
      "✡": 1576,
      "✤": 1577,
      "✦": 1578,
      "✧": 1579,
      "✨": 1580,
      "✩": 1581,
      "✰": 1582,
      "✳": 1583,
      "✶": 1584,
      "✿": 1585,
      "❀": 1586,
      "❃": 1587,
      "❄": 1588,
      "❆": 1589,
      "❌": 1590,
      "❓": 1591,
      "❔": 1592,
      "❖": 1593,
      "❗": 1594,
      "❝": 1595,
      "❞": 1596,
      "❣": 1597,
      "❤": 1598,
      "❱": 1599,
      "➔": 1600,
      "➕": 1601,
      "➖": 1602,
      "➙": 1603,
      "➜": 1604,
      "➞": 1605,
      "➟": 1606,
      "➠": 1607,
      "➡": 1608,
      "➢": 1609,
      "➣": 1610,
      "➤": 1611,
      "➥": 1612,
      "➦": 1613,
      "➨": 1614,
      "➩": 1615,
      "➭": 1616,
      "➰": 1617,
      "➲": 1618,
      "➽": 1619,
      "⟨": 1620,
      "⟩": 1621,
      "⟴": 1622,
      "⟵": 1623,
      "⠀": 1624,
      "⤓": 1625,
      "⤤": 1626,
      "⤴": 1627,
      "⤵": 1628,
      "⦁": 1629,
      "⨀": 1630,
      "⫷": 1631,
      "⫸": 1632,
      "⬆": 1633,
      "⬇": 1634,
      "⬛": 1635,
      "⭐": 1636,
      "⭕": 1637,
      "⮚": 1638,
      "Ⲛ": 1639,
      "〇": 1640,
      "〉": 1641,
      "《": 1642,
      "「": 1643,
      "」": 1644,
      "『": 1645,
      "』": 1646,
      "【": 1647,
      "】": 1648,
      "〜": 1649,
      "あ": 1650,
      "い": 1651,
      "う": 1652,
      "え": 1653,
      "お": 1654,
      "か": 1655,
      "が": 1656,
      "き": 1657,
      "ぎ": 1658,
      "く": 1659,
      "け": 1660,
      "こ": 1661,
      "ご": 1662,
      "さ": 1663,
      "し": 1664,
      "じ": 1665,
      "す": 1666,
      "せ": 1667,
      "そ": 1668,
      "た": 1669,
      "ち": 1670,
      "っ": 1671,
      "て": 1672,
      "で": 1673,
      "と": 1674,
      "ど": 1675,
      "な": 1676,
      "に": 1677,
      "の": 1678,
      "は": 1679,
      "び": 1680,
      "ぶ": 1681,
      "べ": 1682,
      "ま": 1683,
      "み": 1684,
      "む": 1685,
      "め": 1686,
      "も": 1687,
      "や": 1688,
      "ゅ": 1689,
      "ゆ": 1690,
      "ょ": 1691,
      "よ": 1692,
      "ら": 1693,
      "り": 1694,
      "る": 1695,
      "れ": 1696,
      "わ": 1697,
      "を": 1698,
      "ん": 1699,
      "ァ": 1700,
      "ア": 1701,
      "ィ": 1702,
      "イ": 1703,
      "ウ": 1704,
      "エ": 1705,
      "ォ": 1706,
      "オ": 1707,
      "カ": 1708,
      "ガ": 1709,
      "キ": 1710,
      "ク": 1711,
      "グ": 1712,
      "ゲ": 1713,
      "コ": 1714,
      "ゴ": 1715,
      "サ": 1716,
      "ザ": 1717,
      "シ": 1718,
      "ジ": 1719,
      "ス": 1720,
      "ズ": 1721,
      "セ": 1722,
      "ゼ": 1723,
      "ソ": 1724,
      "タ": 1725,
      "ダ": 1726,
      "チ": 1727,
      "ヂ": 1728,
      "ッ": 1729,
      "ツ": 1730,
      "テ": 1731,
      "デ": 1732,
      "ト": 1733,
      "ド": 1734,
      "ナ": 1735,
      "ニ": 1736,
      "ノ": 1737,
      "バ": 1738,
      "パ": 1739,
      "ビ": 1740,
      "ピ": 1741,
      "フ": 1742,
      "ブ": 1743,
      "プ": 1744,
      "ヘ": 1745,
      "ベ": 1746,
      "ホ": 1747,
      "ボ": 1748,
      "マ": 1749,
      "ミ": 1750,
      "ム": 1751,
      "メ": 1752,
      "ャ": 1753,
      "ヤ": 1754,
      "ュ": 1755,
      "ョ": 1756,
      "ラ": 1757,
      "リ": 1758,
      "ル": 1759,
      "レ": 1760,
      "ロ": 1761,
      "ワ": 1762,
      "ン": 1763,
      "ヴ": 1764,
      "ヶ": 1765,
      "ー": 1766,
      "ヽ": 1767,
      "㧥": 1768,
      "一": 1769,
      "丁": 1770,
      "七": 1771,
      "三": 1772,
      "不": 1773,
      "世": 1774,
      "丙": 1775,
      "东": 1776,
      "个": 1777,
      "中": 1778,
      "为": 1779,
      "主": 1780,
      "丽": 1781,
      "么": 1782,
      "义": 1783,
      "之": 1784,
      "乙": 1785,
      "也": 1786,
      "书": 1787,
      "买": 1788,
      "乳": 1789,
      "乾": 1790,
      "事": 1791,
      "二": 1792,
      "于": 1793,
      "互": 1794,
      "五": 1795,
      "亚": 1796,
      "亜": 1797,
      "交": 1798,
      "亦": 1799,
      "亰": 1800,
      "人": 1801,
      "什": 1802,
      "仁": 1803,
      "仅": 1804,
      "今": 1805,
      "代": 1806,
      "令": 1807,
      "以": 1808,
      "件": 1809,
      "份": 1810,
      "伊": 1811,
      "休": 1812,
      "会": 1813,
      "伝": 1814,
      "传": 1815,
      "伯": 1816,
      "伽": 1817,
      "位": 1818,
      "佐": 1819,
      "体": 1820,
      "佛": 1821,
      "作": 1822,
      "你": 1823,
      "侘": 1824,
      "供": 1825,
      "侯": 1826,
      "便": 1827,
      "保": 1828,
      "信": 1829,
      "修": 1830,
      "像": 1831,
      "僕": 1832,
      "僧": 1833,
      "優": 1834,
      "儿": 1835,
      "先": 1836,
      "光": 1837,
      "入": 1838,
      "八": 1839,
      "公": 1840,
      "六": 1841,
      "共": 1842,
      "关": 1843,
      "兴": 1844,
      "内": 1845,
      "写": 1846,
      "冷": 1847,
      "净": 1848,
      "准": 1849,
      "凡": 1850,
      "凹": 1851,
      "出": 1852,
      "击": 1853,
      "函": 1854,
      "刊": 1855,
      "初": 1856,
      "別": 1857,
      "利": 1858,
      "到": 1859,
      "剧": 1860,
      "割": 1861,
      "劇": 1862,
      "劉": 1863,
      "功": 1864,
      "加": 1865,
      "务": 1866,
      "动": 1867,
      "助": 1868,
      "労": 1869,
      "動": 1870,
      "勤": 1871,
      "包": 1872,
      "化": 1873,
      "北": 1874,
      "區": 1875,
      "十": 1876,
      "午": 1877,
      "卍": 1878,
      "华": 1879,
      "协": 1880,
      "協": 1881,
      "单": 1882,
      "南": 1883,
      "博": 1884,
      "卯": 1885,
      "原": 1886,
      "参": 1887,
      "參": 1888,
      "友": 1889,
      "双": 1890,
      "受": 1891,
      "古": 1892,
      "可": 1893,
      "台": 1894,
      "史": 1895,
      "号": 1896,
      "司": 1897,
      "合": 1898,
      "吉": 1899,
      "同": 1900,
      "名": 1901,
      "后": 1902,
      "吗": 1903,
      "吳": 1904,
      "周": 1905,
      "味": 1906,
      "命": 1907,
      "和": 1908,
      "咕": 1909,
      "咾": 1910,
      "品": 1911,
      "售": 1912,
      "唱": 1913,
      "唵": 1914,
      "善": 1915,
      "喜": 1916,
      "喷": 1917,
      "嘉": 1918,
      "噌": 1919,
      "嚴": 1920,
      "四": 1921,
      "回": 1922,
      "园": 1923,
      "国": 1924,
      "图": 1925,
      "國": 1926,
      "圍": 1927,
      "土": 1928,
      "在": 1929,
      "地": 1930,
      "圳": 1931,
      "场": 1932,
      "坏": 1933,
      "型": 1934,
      "城": 1935,
      "場": 1936,
      "塑": 1937,
      "墊": 1938,
      "増": 1939,
      "墟": 1940,
      "壢": 1941,
      "変": 1942,
      "夕": 1943,
      "外": 1944,
      "多": 1945,
      "夜": 1946,
      "夢": 1947,
      "大": 1948,
      "天": 1949,
      "太": 1950,
      "央": 1951,
      "头": 1952,
      "夷": 1953,
      "套": 1954,
      "女": 1955,
      "好": 1956,
      "如": 1957,
      "始": 1958,
      "威": 1959,
      "嬰": 1960,
      "子": 1961,
      "字": 1962,
      "季": 1963,
      "学": 1964,
      "學": 1965,
      "安": 1966,
      "宗": 1967,
      "定": 1968,
      "宝": 1969,
      "实": 1970,
      "実": 1971,
      "宣": 1972,
      "家": 1973,
      "宽": 1974,
      "寂": 1975,
      "导": 1976,
      "対": 1977,
      "寿": 1978,
      "将": 1979,
      "導": 1980,
      "小": 1981,
      "少": 1982,
      "尾": 1983,
      "局": 1984,
      "山": 1985,
      "島": 1986,
      "崎": 1987,
      "嶺": 1988,
      "川": 1989,
      "州": 1990,
      "工": 1991,
      "差": 1992,
      "己": 1993,
      "巽": 1994,
      "币": 1995,
      "市": 1996,
      "布": 1997,
      "帆": 1998,
      "师": 1999,
      "帝": 2000,
      "帰": 2001,
      "常": 2002,
      "幕": 2003,
      "平": 2004,
      "年": 2005,
      "幻": 2006,
      "幽": 2007,
      "广": 2008,
      "应": 2009,
      "底": 2010,
      "度": 2011,
      "座": 2012,
      "廢": 2013,
      "廣": 2014,
      "建": 2015,
      "开": 2016,
      "式": 2017,
      "引": 2018,
      "弘": 2019,
      "张": 2020,
      "強": 2021,
      "强": 2022,
      "归": 2023,
      "当": 2024,
      "彼": 2025,
      "很": 2026,
      "心": 2027,
      "忌": 2028,
      "忠": 2029,
      "态": 2030,
      "思": 2031,
      "恋": 2032,
      "息": 2033,
      "情": 2034,
      "想": 2035,
      "愍": 2036,
      "意": 2037,
      "愛": 2038,
      "感": 2039,
      "懷": 2040,
      "戊": 2041,
      "成": 2042,
      "我": 2043,
      "戦": 2044,
      "所": 2045,
      "手": 2046,
      "才": 2047,
      "托": 2048,
      "技": 2049,
      "把": 2050,
      "投": 2051,
      "抜": 2052,
      "拠": 2053,
      "择": 2054,
      "持": 2055,
      "损": 2056,
      "换": 2057,
      "据": 2058,
      "接": 2059,
      "提": 2060,
      "換": 2061,
      "摩": 2062,
      "收": 2063,
      "改": 2064,
      "放": 2065,
      "政": 2066,
      "敦": 2067,
      "数": 2068,
      "文": 2069,
      "斎": 2070,
      "斗": 2071,
      "料": 2072,
      "斬": 2073,
      "斯": 2074,
      "新": 2075,
      "方": 2076,
      "族": 2077,
      "日": 2078,
      "旦": 2079,
      "时": 2080,
      "明": 2081,
      "昏": 2082,
      "易": 2083,
      "星": 2084,
      "映": 2085,
      "春": 2086,
      "時": 2087,
      "晉": 2088,
      "晒": 2089,
      "晓": 2090,
      "曆": 2091,
      "曲": 2092,
      "更": 2093,
      "曹": 2094,
      "最": 2095,
      "月": 2096,
      "有": 2097,
      "服": 2098,
      "期": 2099,
      "木": 2100,
      "未": 2101,
      "本": 2102,
      "杀": 2103,
      "材": 2104,
      "村": 2105,
      "条": 2106,
      "来": 2107,
      "杭": 2108,
      "杰": 2109,
      "東": 2110,
      "松": 2111,
      "构": 2112,
      "林": 2113,
      "枚": 2114,
      "果": 2115,
      "枝": 2116,
      "枪": 2117,
      "柄": 2118,
      "柔": 2119,
      "查": 2120,
      "柴": 2121,
      "栄": 2122,
      "标": 2123,
      "校": 2124,
      "株": 2125,
      "样": 2126,
      "根": 2127,
      "格": 2128,
      "梁": 2129,
      "條": 2130,
      "梱": 2131,
      "梵": 2132,
      "楽": 2133,
      "樫": 2134,
      "樺": 2135,
      "橋": 2136,
      "欣": 2137,
      "款": 2138,
      "歌": 2139,
      "正": 2140,
      "步": 2141,
      "歩": 2142,
      "歳": 2143,
      "歴": 2144,
      "死": 2145,
      "残": 2146,
      "毛": 2147,
      "民": 2148,
      "气": 2149,
      "気": 2150,
      "水": 2151,
      "汁": 2152,
      "求": 2153,
      "江": 2154,
      "池": 2155,
      "沈": 2156,
      "沖": 2157,
      "沙": 2158,
      "治": 2159,
      "沿": 2160,
      "泉": 2161,
      "法": 2162,
      "波": 2163,
      "泳": 2164,
      "泵": 2165,
      "洞": 2166,
      "津": 2167,
      "洲": 2168,
      "测": 2169,
      "济": 2170,
      "浙": 2171,
      "浜": 2172,
      "海": 2173,
      "消": 2174,
      "液": 2175,
      "淚": 2176,
      "深": 2177,
      "添": 2178,
      "済": 2179,
      "温": 2180,
      "港": 2181,
      "湘": 2182,
      "溝": 2183,
      "滚": 2184,
      "漫": 2185,
      "潜": 2186,
      "澤": 2187,
      "澳": 2188,
      "濟": 2189,
      "火": 2190,
      "無": 2191,
      "熊": 2192,
      "片": 2193,
      "版": 2194,
      "牌": 2195,
      "牙": 2196,
      "物": 2197,
      "特": 2198,
      "犬": 2199,
      "状": 2200,
      "狂": 2201,
      "独": 2202,
      "狱": 2203,
      "狸": 2204,
      "獄": 2205,
      "玄": 2206,
      "王": 2207,
      "玻": 2208,
      "珠": 2209,
      "班": 2210,
      "球": 2211,
      "理": 2212,
      "璃": 2213,
      "璽": 2214,
      "瓶": 2215,
      "生": 2216,
      "用": 2217,
      "田": 2218,
      "由": 2219,
      "男": 2220,
      "画": 2221,
      "界": 2222,
      "疆": 2223,
      "疲": 2224,
      "癟": 2225,
      "白": 2226,
      "的": 2227,
      "益": 2228,
      "盟": 2229,
      "目": 2230,
      "直": 2231,
      "相": 2232,
      "眉": 2233,
      "眠": 2234,
      "眼": 2235,
      "睡": 2236,
      "矇": 2237,
      "石": 2238,
      "硫": 2239,
      "碗": 2240,
      "示": 2241,
      "社": 2242,
      "祝": 2243,
      "神": 2244,
      "祭": 2245,
      "禁": 2246,
      "禅": 2247,
      "福": 2248,
      "秋": 2249,
      "秘": 2250,
      "程": 2251,
      "稿": 2252,
      "穀": 2253,
      "積": 2254,
      "穢": 2255,
      "究": 2256,
      "空": 2257,
      "突": 2258,
      "立": 2259,
      "章": 2260,
      "童": 2261,
      "端": 2262,
      "第": 2263,
      "笼": 2264,
      "等": 2265,
      "策": 2266,
      "签": 2267,
      "简": 2268,
      "算": 2269,
      "管": 2270,
      "節": 2271,
      "簡": 2272,
      "籠": 2273,
      "米": 2274,
      "粒": 2275,
      "粤": 2276,
      "約": 2277,
      "紧": 2278,
      "紫": 2279,
      "経": 2280,
      "絵": 2281,
      "絶": 2282,
      "經": 2283,
      "線": 2284,
      "緣": 2285,
      "縄": 2286,
      "繹": 2287,
      "经": 2288,
      "结": 2289,
      "维": 2290,
      "综": 2291,
      "缺": 2292,
      "罐": 2293,
      "羅": 2294,
      "義": 2295,
      "羶": 2296,
      "羹": 2297,
      "老": 2298,
      "考": 2299,
      "者": 2300,
      "联": 2301,
      "聴": 2302,
      "肉": 2303,
      "肌": 2304,
      "肖": 2305,
      "股": 2306,
      "胖": 2307,
      "能": 2308,
      "脅": 2309,
      "脇": 2310,
      "脳": 2311,
      "脹": 2312,
      "自": 2313,
      "舎": 2314,
      "舞": 2315,
      "航": 2316,
      "般": 2317,
      "船": 2318,
      "艦": 2319,
      "色": 2320,
      "芯": 2321,
      "花": 2322,
      "若": 2323,
      "苦": 2324,
      "英": 2325,
      "茶": 2326,
      "荔": 2327,
      "菓": 2328,
      "華": 2329,
      "萌": 2330,
      "萬": 2331,
      "蓄": 2332,
      "蕎": 2333,
      "藤": 2334,
      "蘇": 2335,
      "蛮": 2336,
      "蜜": 2337,
      "融": 2338,
      "行": 2339,
      "術": 2340,
      "衝": 2341,
      "衡": 2342,
      "衣": 2343,
      "表": 2344,
      "袋": 2345,
      "裸": 2346,
      "襤": 2347,
      "西": 2348,
      "要": 2349,
      "覺": 2350,
      "见": 2351,
      "规": 2352,
      "解": 2353,
      "計": 2354,
      "訪": 2355,
      "訶": 2356,
      "証": 2357,
      "詢": 2358,
      "詩": 2359,
      "誕": 2360,
      "語": 2361,
      "諭": 2362,
      "諸": 2363,
      "謀": 2364,
      "講": 2365,
      "謳": 2366,
      "證": 2367,
      "護": 2368,
      "议": 2369,
      "论": 2370,
      "证": 2371,
      "试": 2372,
      "误": 2373,
      "说": 2374,
      "谋": 2375,
      "谷": 2376,
      "豪": 2377,
      "賀": 2378,
      "賞": 2379,
      "财": 2380,
      "货": 2381,
      "质": 2382,
      "购": 2383,
      "贷": 2384,
      "贸": 2385,
      "赤": 2386,
      "起": 2387,
      "路": 2388,
      "身": 2389,
      "車": 2390,
      "軍": 2391,
      "転": 2392,
      "輪": 2393,
      "车": 2394,
      "辛": 2395,
      "辰": 2396,
      "达": 2397,
      "还": 2398,
      "这": 2399,
      "述": 2400,
      "送": 2401,
      "选": 2402,
      "透": 2403,
      "通": 2404,
      "速": 2405,
      "連": 2406,
      "週": 2407,
      "過": 2408,
      "道": 2409,
      "達": 2410,
      "邁": 2411,
      "邑": 2412,
      "郎": 2413,
      "部": 2414,
      "配": 2415,
      "醪": 2416,
      "釋": 2417,
      "里": 2418,
      "重": 2419,
      "野": 2420,
      "量": 2421,
      "金": 2422,
      "鈴": 2423,
      "鉄": 2424,
      "銀": 2425,
      "錦": 2426,
      "錾": 2427,
      "鎖": 2428,
      "鏡": 2429,
      "钱": 2430,
      "铝": 2431,
      "银": 2432,
      "链": 2433,
      "长": 2434,
      "門": 2435,
      "間": 2436,
      "门": 2437,
      "问": 2438,
      "间": 2439,
      "陀": 2440,
      "限": 2441,
      "院": 2442,
      "险": 2443,
      "陳": 2444,
      "陵": 2445,
      "陷": 2446,
      "隆": 2447,
      "隧": 2448,
      "隱": 2449,
      "雄": 2450,
      "離": 2451,
      "雨": 2452,
      "雲": 2453,
      "雷": 2454,
      "電": 2455,
      "需": 2456,
      "青": 2457,
      "靠": 2458,
      "面": 2459,
      "革": 2460,
      "音": 2461,
      "響": 2462,
      "頃": 2463,
      "領": 2464,
      "頭": 2465,
      "题": 2466,
      "颜": 2467,
      "風": 2468,
      "食": 2469,
      "飯": 2470,
      "館": 2471,
      "馆": 2472,
      "香": 2473,
      "馨": 2474,
      "馬": 2475,
      "马": 2476,
      "體": 2477,
      "高": 2478,
      "髪": 2479,
      "鬚": 2480,
      "魔": 2481,
      "鱉": 2482,
      "鱼": 2483,
      "鳥": 2484,
      "鳴": 2485,
      "鸟": 2486,
      "麦": 2487,
      "麻": 2488,
      "黄": 2489,
      "黑": 2490,
      "黒": 2491,
      "鼠": 2492,
      "齋": 2493,
      "龍": 2494,
      "ꙮ": 2495,
      "ꪜ": 2496,
      "게": 2497,
      "계": 2498,
      "골": 2499,
      "공": 2500,
      "국": 2501,
      "궁": 2502,
      "금": 2503,
      "기": 2504,
      "념": 2505,
      "는": 2506,
      "도": 2507,
      "드": 2508,
      "든": 2509,
      "등": 2510,
      "디": 2511,
      "라": 2512,
      "량": 2513,
      "로": 2514,
      "민": 2515,
      "별": 2516,
      "부": 2517,
      "산": 2518,
      "선": 2519,
      "성": 2520,
      "수": 2521,
      "스": 2522,
      "시": 2523,
      "앙": 2524,
      "애": 2525,
      "양": 2526,
      "어": 2527,
      "우": 2528,
      "워": 2529,
      "은": 2530,
      "의": 2531,
      "이": 2532,
      "인": 2533,
      "전": 2534,
      "조": 2535,
      "주": 2536,
      "중": 2537,
      "카": 2538,
      "콩": 2539,
      "크": 2540,
      "태": 2541,
      "틋": 2542,
      "하": 2543,
      "한": 2544,
      "함": 2545,
      "행": 2546,
      "화": 2547,
      "휴": 2548,
      "": 2549,
      "": 2550,
      "": 2551,
      "": 2552,
      "": 2553,
      "": 2554,
      "": 2555,
      "": 2556,
      "": 2557,
      "": 2558,
      "": 2559,
      "": 2560,
      "": 2561,
      "": 2562,
      "": 2563,
      "": 2564,
      "": 2565,
      "": 2566,
      "": 2567,
      "": 2568,
      "": 2569,
      "": 2570,
      "": 2571,
      "": 2572,
      "": 2573,
      "": 2574,
      "": 2575,
      "": 2576,
      "": 2577,
      "": 2578,
      "": 2579,
      "": 2580,
      "": 2581,
      "": 2582,
      "": 2583,
      "": 2584,
      "": 2585,
      "": 2586,
      "": 2587,
      "": 2588,
      "": 2589,
      "": 2590,
      "": 2591,
      "": 2592,
      "": 2593,
      "": 2594,
      "": 2595,
      "": 2596,
      "": 2597,
      "": 2598,
      "": 2599,
      "": 2600,
      "": 2601,
      "": 2602,
      "": 2603,
      "﴾": 2604,
      "﴿": 2605,
      "︎": 2606,
      "️": 2607,
      "﹅": 2608,
      "𐰀": 2609,
      "𐰇": 2610,
      "𐰚": 2611,
      "𐰤": 2612,
      "𐰼": 2613,
      "𐱃": 2614,
      "𐱅": 2615,
      "𔄝": 2616,
      "🃏": 2617,
      "🅰": 2618,
      "🅱": 2619,
      "🅲": 2620,
      "🅷": 2621,
      "🅸": 2622,
      "🅻": 2623,
      "🅼": 2624,
      "🅾": 2625,
      "🆁": 2626,
      "🆃": 2627,
      "🆈": 2628,
      "🆕": 2629,
      "🆘": 2630,
      "🇦": 2631,
      "🇧": 2632,
      "🇩": 2633,
      "🇪": 2634,
      "🇫": 2635,
      "🇬": 2636,
      "🇮": 2637,
      "🇯": 2638,
      "🇱": 2639,
      "🇳": 2640,
      "🇵": 2641,
      "🇷": 2642,
      "🇸": 2643,
      "🇹": 2644,
      "🇺": 2645,
      "🇾": 2646,
      "🇿": 2647,
      "🌀": 2648,
      "🌄": 2649,
      "🌅": 2650,
      "🌈": 2651,
      "🌊": 2652,
      "🌍": 2653,
      "🌎": 2654,
      "🌏": 2655,
      "🌐": 2656,
      "🌑": 2657,
      "🌙": 2658,
      "🌟": 2659,
      "🌤": 2660,
      "🌧": 2661,
      "🌯": 2662,
      "🌱": 2663,
      "🌲": 2664,
      "🌶": 2665,
      "🌷": 2666,
      "🌸": 2667,
      "🌹": 2668,
      "🌺": 2669,
      "🌻": 2670,
      "🌼": 2671,
      "🌽": 2672,
      "🌾": 2673,
      "🌿": 2674,
      "🍀": 2675,
      "🍂": 2676,
      "🍄": 2677,
      "🍅": 2678,
      "🍆": 2679,
      "🍇": 2680,
      "🍌": 2681,
      "🍏": 2682,
      "🍓": 2683,
      "🍔": 2684,
      "🍕": 2685,
      "🍖": 2686,
      "🍗": 2687,
      "🍚": 2688,
      "🍝": 2689,
      "🍞": 2690,
      "🍨": 2691,
      "🍩": 2692,
      "🍪": 2693,
      "🍫": 2694,
      "🍭": 2695,
      "🍲": 2696,
      "🍳": 2697,
      "🍵": 2698,
      "🍶": 2699,
      "🍹": 2700,
      "🍼": 2701,
      "🍽": 2702,
      "🍿": 2703,
      "🎁": 2704,
      "🎂": 2705,
      "🎃": 2706,
      "🎄": 2707,
      "🎈": 2708,
      "🎉": 2709,
      "🎒": 2710,
      "🎓": 2711,
      "🎖": 2712,
      "🎗": 2713,
      "🎙": 2714,
      "🎡": 2715,
      "🎢": 2716,
      "🎤": 2717,
      "🎥": 2718,
      "🎧": 2719,
      "🎨": 2720,
      "🎬": 2721,
      "🎭": 2722,
      "🎮": 2723,
      "🎯": 2724,
      "🎰": 2725,
      "🎵": 2726,
      "🎶": 2727,
      "🎼": 2728,
      "🎽": 2729,
      "🏀": 2730,
      "🏃": 2731,
      "🏄": 2732,
      "🏅": 2733,
      "🏆": 2734,
      "🏈": 2735,
      "🏊": 2736,
      "🏎": 2737,
      "🏐": 2738,
      "🏓": 2739,
      "🏔": 2740,
      "🏕": 2741,
      "🏖": 2742,
      "🏛": 2743,
      "🏞": 2744,
      "🏠": 2745,
      "🏡": 2746,
      "🏢": 2747,
      "🏥": 2748,
      "🏧": 2749,
      "🏨": 2750,
      "🏭": 2751,
      "🏵": 2752,
      "🏷": 2753,
      "🏻": 2754,
      "🏼": 2755,
      "🏽": 2756,
      "🏾": 2757,
      "🐈": 2758,
      "🐋": 2759,
      "🐌": 2760,
      "🐙": 2761,
      "🐝": 2762,
      "🐞": 2763,
      "🐟": 2764,
      "🐠": 2765,
      "🐱": 2766,
      "🐲": 2767,
      "🐳": 2768,
      "🐵": 2769,
      "🐶": 2770,
      "🐻": 2771,
      "🐼": 2772,
      "🐾": 2773,
      "👀": 2774,
      "👁": 2775,
      "👃": 2776,
      "👆": 2777,
      "👇": 2778,
      "👈": 2779,
      "👉": 2780,
      "👊": 2781,
      "👋": 2782,
      "👌": 2783,
      "👍": 2784,
      "👎": 2785,
      "👏": 2786,
      "👐": 2787,
      "👑": 2788,
      "👜": 2789,
      "👣": 2790,
      "👤": 2791,
      "👦": 2792,
      "👧": 2793,
      "👨": 2794,
      "👩": 2795,
      "👪": 2796,
      "👫": 2797,
      "👭": 2798,
      "👮": 2799,
      "👯": 2800,
      "👰": 2801,
      "👵": 2802,
      "👶": 2803,
      "👷": 2804,
      "👸": 2805,
      "💀": 2806,
      "💁": 2807,
      "💃": 2808,
      "💅": 2809,
      "💆": 2810,
      "💇": 2811,
      "💉": 2812,
      "💋": 2813,
      "💎": 2814,
      "💐": 2815,
      "💑": 2816,
      "💓": 2817,
      "💔": 2818,
      "💕": 2819,
      "💖": 2820,
      "💗": 2821,
      "💘": 2822,
      "💙": 2823,
      "💚": 2824,
      "💛": 2825,
      "💜": 2826,
      "💞": 2827,
      "💡": 2828,
      "💢": 2829,
      "💤": 2830,
      "💥": 2831,
      "💦": 2832,
      "💧": 2833,
      "💨": 2834,
      "💩": 2835,
      "💪": 2836,
      "💫": 2837,
      "💬": 2838,
      "💭": 2839,
      "💯": 2840,
      "💰": 2841,
      "💲": 2842,
      "💳": 2843,
      "💵": 2844,
      "💶": 2845,
      "💸": 2846,
      "💻": 2847,
      "💼": 2848,
      "💿": 2849,
      "📃": 2850,
      "📅": 2851,
      "📆": 2852,
      "📈": 2853,
      "📉": 2854,
      "📊": 2855,
      "📋": 2856,
      "📌": 2857,
      "📍": 2858,
      "📎": 2859,
      "📐": 2860,
      "📕": 2861,
      "📖": 2862,
      "📘": 2863,
      "📚": 2864,
      "📝": 2865,
      "📞": 2866,
      "📢": 2867,
      "📣": 2868,
      "📦": 2869,
      "📨": 2870,
      "📩": 2871,
      "📭": 2872,
      "📰": 2873,
      "📱": 2874,
      "📲": 2875,
      "📵": 2876,
      "📶": 2877,
      "📷": 2878,
      "📸": 2879,
      "📹": 2880,
      "📺": 2881,
      "📻": 2882,
      "📽": 2883,
      "🔁": 2884,
      "🔅": 2885,
      "🔆": 2886,
      "🔊": 2887,
      "🔋": 2888,
      "🔍": 2889,
      "🔎": 2890,
      "🔐": 2891,
      "🔑": 2892,
      "🔒": 2893,
      "🔔": 2894,
      "🔗": 2895,
      "🔘": 2896,
      "🔝": 2897,
      "🔞": 2898,
      "🔥": 2899,
      "🔧": 2900,
      "🔨": 2901,
      "🔰": 2902,
      "🔴": 2903,
      "🔵": 2904,
      "🔷": 2905,
      "🔸": 2906,
      "🔹": 2907,
      "🔺": 2908,
      "🔻": 2909,
      "🔽": 2910,
      "😀": 2911,
      "😁": 2912,
      "😂": 2913,
      "😃": 2914,
      "😄": 2915,
      "😅": 2916,
      "😆": 2917,
      "😇": 2918,
      "😈": 2919,
      "😉": 2920,
      "😊": 2921,
      "😋": 2922,
      "😌": 2923,
      "😍": 2924,
      "😎": 2925,
      "😏": 2926,
      "😐": 2927,
      "😒": 2928,
      "😓": 2929,
      "😔": 2930,
      "😕": 2931,
      "😖": 2932,
      "😗": 2933,
      "😘": 2934,
      "😚": 2935,
      "😛": 2936,
      "😜": 2937,
      "😝": 2938,
      "😞": 2939,
      "😟": 2940,
      "😠": 2941,
      "😡": 2942,
      "😢": 2943,
      "😣": 2944,
      "😤": 2945,
      "😥": 2946,
      "😦": 2947,
      "😨": 2948,
      "😩": 2949,
      "😫": 2950,
      "😬": 2951,
      "😭": 2952,
      "😮": 2953,
      "😯": 2954,
      "😰": 2955,
      "😱": 2956,
      "😲": 2957,
      "😳": 2958,
      "😴": 2959,
      "😵": 2960,
      "😷": 2961,
      "😹": 2962,
      "😺": 2963,
      "😻": 2964,
      "🙁": 2965,
      "🙂": 2966,
      "🙃": 2967,
      "🙄": 2968,
      "🙆": 2969,
      "🙇": 2970,
      "🙈": 2971,
      "🙋": 2972,
      "🙌": 2973,
      "🙏": 2974,
      "🚀": 2975,
      "🚋": 2976,
      "🚘": 2977,
      "🚚": 2978,
      "🚢": 2979,
      "🚨": 2980,
      "🚩": 2981,
      "🚫": 2982,
      "🚲": 2983,
      "🚶": 2984,
      "🛂": 2985,
      "la": 2986,
      "er": 2987,
      "in": 2988,
      "an": 2989,
      "en": 2990,
      "ın": 2991,
      "ir": 2992,
      "il": 2993,
      "ar": 2994,
      "de": 2995,
      "ma": 2996,
      "lar": 2997,
      "da": 2998,
      "ya": 2999,
      "ek": 3000,
      "el": 3001,
      "et": 3002,
      "ak": 3003,
      "al": 3004,
      "ve": 3005,
      "un": 3006,
      "ler": 3007,
      "iz": 3008,
      "or": 3009,
      "ik": 3010,
      "es": 3011,
      "bir": 3012,
      "on": 3013,
      "ır": 3014,
      "ol": 3015,
      "lan": 3016,
      "em": 3017,
      "im": 3018,
      "iy": 3019,
      "ta": 3020,
      "is": 3021,
      "ka": 3022,
      "lı": 3023,
      "ur": 3024,
      "iş": 3025,
      "ün": 3026,
      "sa": 3027,
      "ed": 3028,
      "ür": 3029,
      "ul": 3030,
      "sı": 3031,
      "bil": 3032,
      "le": 3033,
      "ha": 3034,
      "iç": 3035,
      "ba": 3036,
      "it": 3037,
      "ların": 3038,
      "ış": 3039,
      "ız": 3040,
      "li": 3041,
      "ım": 3042,
      "dan": 3043,
      "ara": 3044,
      "ey": 3045,
      "ön": 3046,
      "um": 3047,
      "sın": 3048,
      "inde": 3049,
      "ra": 3050,
      "tı": 3051,
      "den": 3052,
      "di": 3053,
      "ları": 3054,
      "ok": 3055,
      "ay": 3056,
      "üz": 3057,
      "ör": 3058,
      "dı": 3059,
      "du": 3060,
      "mak": 3061,
      "ini": 3062,
      "ine": 3063,
      "ıl": 3064,
      "yap": 3065,
      "st": 3066,
      "ile": 3067,
      "bu": 3068,
      "ti": 3069,
      "için": 3070,
      "am": 3071,
      "te": 3072,
      "ki": 3073,
      "ce": 3074,
      "ük": 3075,
      "iler": 3076,
      "dır": 3077,
      "uz": 3078,
      "at": 3079,
      "ık": 3080,
      "esi": 3081,
      "leri": 3082,
      "üm": 3083,
      "ver": 3084,
      "ında": 3085,
      "iniz": 3086,
      "dir": 3087,
      "eler": 3088,
      "ev": 3089,
      "yor": 3090,
      "ğı": 3091,
      "mek": 3092,
      "inin": 3093,
      "az": 3094,
      "bilir": 3095,
      "şt": 3096,
      "gi": 3097,
      "öz": 3098,
      "ca": 3099,
      "larak": 3100,
      "lik": 3101,
      "baş": 3102,
      "gör": 3103,
      "yan": 3104,
      "ger": 3105,
      "ist": 3106,
      "cak": 3107,
      "kar": 3108,
      "gel": 3109,
      "ği": 3110,
      "son": 3111,
      "cı": 3112,
      "oğ": 3113,
      "iyor": 3114,
      "olarak": 3115,
      "eç": 3116,
      "ken": 3117,
      "us": 3118,
      "ül": 3119,
      "ut": 3120,
      "ola": 3121,
      "ip": 3122,
      "bul": 3123,
      "lık": 3124,
      "ması": 3125,
      "man": 3126,
      "me": 3127,
      "Bu": 3128,
      "yı": 3129,
      "kul": 3130,
      "len": 3131,
      "uy": 3132,
      "tır": 3133,
      "kon": 3134,
      "bi": 3135,
      "oldu": 3136,
      "lem": 3137,
      "ro": 3138,
      "ec": 3139,
      "aş": 3140,
      "kullan": 3141,
      "çok": 3142,
      "değ": 3143,
      "ğın": 3144,
      "yer": 3145,
      "ede": 3146,
      "olan": 3147,
      "gün": 3148,
      "tir": 3149,
      "uk": 3150,
      "san": 3151,
      "ci": 3152,
      "çık": 3153,
      "lama": 3154,
      "eden": 3155,
      "iye": 3156,
      "unu": 3157,
      "tan": 3158,
      "yük": 3159,
      "ilm": 3160,
      "dur": 3161,
      "laş": 3162,
      "der": 3163,
      "met": 3164,
      "sür": 3165,
      "as": 3166,
      "to": 3167,
      "kan": 3168,
      "mış": 3169,
      "alış": 3170,
      "üş": 3171,
      "her": 3172,
      "imiz": 3173,
      "20": 3174,
      "oy": 3175,
      "tar": 3176,
      "kı": 3177,
      "daha": 3178,
      "dar": 3179,
      "uş": 3180,
      "kur": 3181,
      "sında": 3182,
      "ter": 3183,
      "se": 3184,
      "kal": 3185,
      "yon": 3186,
      "yıl": 3187,
      "inden": 3188,
      "ından": 3189,
      "siz": 3190,
      "bel": 3191,
      "eş": 3192,
      "şı": 3193,
      "olduğ": 3194,
      "sağ": 3195,
      "ih": 3196,
      "öl": 3197,
      "çek": 3198,
      "var": 3199,
      "ına": 3200,
      "lu": 3201,
      "gerek": 3202,
      "geç": 3203,
      "ili": 3204,
      "bü": 3205,
      "ez": 3206,
      "çalış": 3207,
      "hal": 3208,
      "fa": 3209,
      "yen": 3210,
      "gibi": 3211,
      "makta": 3212,
      "ürk": 3213,
      "ama": 3214,
      "om": 3215,
      "eğ": 3216,
      "ad": 3217,
      "eye": 3218,
      "ilen": 3219,
      "edir": 3220,
      "yar": 3221,
      "edi": 3222,
      "üzer": 3223,
      "isi": 3224,
      "olma": 3225,
      "tek": 3226,
      "unda": 3227,
      "aman": 3228,
      "şek": 3229,
      "gü": 3230,
      "iya": 3231,
      "önem": 3232,
      "men": 3233,
      "ça": 3234,
      "ımız": 3235,
      "ru": 3236,
      "os": 3237,
      "öy": 3238,
      "alan": 3239,
      "siniz": 3240,
      "yla": 3241,
      "Türk": 3242,
      "doğ": 3243,
      "olu": 3244,
      "yapı": 3245,
      "veya": 3246,
      "tara": 3247,
      "bulun": 3248,
      "uyg": 3249,
      "ecek": 3250,
      "lerin": 3251,
      "yaş": 3252,
      "zaman": 3253,
      "lara": 3254,
      "diğ": 3255,
      "ren": 3256,
      "yön": 3257,
      "yaz": 3258,
      "tak": 3259,
      "sor": 3260,
      "mekt": 3261,
      "na": 3262,
      "larını": 3263,
      "ne": 3264,
      "lü": 3265,
      "iyle": 3266,
      "larda": 3267,
      "taraf": 3268,
      "eli": 3269,
      "ap": 3270,
      "sonra": 3271,
      "pro": 3272,
      "maktadır": 3273,
      "iyet": 3274,
      "bilirsiniz": 3275,
      "ber": 3276,
      "ece": 3277,
      "miş": 3278,
      "ot": 3279,
      "kadar": 3280,
      "sit": 3281,
      "unun": 3282,
      "sah": 3283,
      "let": 3284,
      "ını": 3285,
      "mü": 3286,
      "ark": 3287,
      "ürün": 3288,
      "izmet": 3289,
      "An": 3290,
      "tem": 3291,
      "ise": 3292,
      "si": 3293,
      "dev": 3294,
      "art": 3295,
      "gen": 3296,
      "ıyor": 3297,
      "sun": 3298,
      "kap": 3299,
      "aç": 3300,
      "kiş": 3301,
      "gö": 3302,
      "mu": 3303,
      "özel": 3304,
      "mektedir": 3305,
      "hak": 3306,
      "ada": 3307,
      "mes": 3308,
      "sal": 3309,
      "düş": 3310,
      "hizmet": 3311,
      "00": 3312,
      "belir": 3313,
      "be": 3314,
      "orta": 3315,
      "ının": 3316,
      "karşı": 3317,
      "etk": 3318,
      "arı": 3319,
      "top": 3320,
      "lerini": 3321,
      "şekil": 3322,
      "sını": 3323,
      "ah": 3324,
      "sına": 3325,
      "cu": 3326,
      "ser": 3327,
      "dığı": 3328,
      "dik": 3329,
      "sek": 3330,
      "tr": 3331,
      "maya": 3332,
      "ağ": 3333,
      "kay": 3334,
      "bak": 3335,
      "va": 3336,
      "lam": 3337,
      "esinde": 3338,
      "rı": 3339,
      "içer": 3340,
      "sel": 3341,
      "ret": 3342,
      "eh": 3343,
      "yüz": 3344,
      "imi": 3345,
      "iyi": 3346,
      "ster": 3347,
      "durum": 3348,
      "düz": 3349,
      "şekilde": 3350,
      "ten": 3351,
      "yeni": 3352,
      "tes": 3353,
      "tarafından": 3354,
      "öğ": 3355,
      "han": 3356,
      "Bir": 3357,
      "mo": 3358,
      "kat": 3359,
      "gerçek": 3360,
      "yak": 3361,
      "istem": 3362,
      "lere": 3363,
      "ilg": 3364,
      "ic": 3365,
      "mesi": 3366,
      "mer": 3367,
      "larının": 3368,
      "ğını": 3369,
      "ven": 3370,
      "iştir": 3371,
      "göre": 3372,
      "bağ": 3373,
      "har": 3374,
      "op": 3375,
      "tür": 3376,
      "hem": 3377,
      "alt": 3378,
      "neden": 3379,
      "ştir": 3380,
      "elik": 3381,
      "larına": 3382,
      "tüm": 3383,
      "arak": 3384,
      "büyük": 3385,
      "re": 3386,
      "if": 3387,
      "19": 3388,
      "larında": 3389,
      "fark": 3390,
      "alı": 3391,
      "eleri": 3392,
      "sen": 3393,
      "sahip": 3394,
      "böl": 3395,
      "ban": 3396,
      "mal": 3397,
      "lığı": 3398,
      "göster": 3399,
      "bilg": 3400,
      "Baş": 3401,
      "uygu": 3402,
      "haz": 3403,
      "ştur": 3404,
      "ran": 3405,
      "dür": 3406,
      "leş": 3407,
      "su": 3408,
      "ınız": 3409,
      "una": 3410,
      "insan": 3411,
      "ileri": 3412,
      "yol": 3413,
      "seç": 3414,
      "mey": 3415,
      "tık": 3416,
      "stan": 3417,
      "yal": 3418,
      "av": 3419,
      "erek": 3420,
      "sız": 3421,
      "sır": 3422,
      "gir": 3423,
      "ep": 3424,
      "ilk": 3425,
      "kü": 3426,
      "ben": 3427,
      "kend": 3428,
      "for": 3429,
      "işlem": 3430,
      "dım": 3431,
      "başla": 3432,
      "olduğu": 3433,
      "res": 3434,
      "hat": 3435,
      "kes": 3436,
      "faz": 3437,
      "kullanı": 3438,
      "açık": 3439,
      "dü": 3440,
      "say": 3441,
      "değer": 3442,
      "ası": 3443,
      "kez": 3444,
      "değil": 3445,
      "leştir": 3446,
      "arasında": 3447,
      "sat": 3448,
      "üc": 3449,
      "önemli": 3450,
      "lerde": 3451,
      "ğini": 3452,
      "tal": 3453,
      "ram": 3454,
      "ye": 3455,
      "kor": 3456,
      "aret": 3457,
      "yat": 3458,
      "oyun": 3459,
      "id": 3460,
      "ğu": 3461,
      "ala": 3462,
      "ko": 3463,
      "iyat": 3464,
      "tik": 3465,
      "fazla": 3466,
      "liği": 3467,
      "ef": 3468,
      "yapıl": 3469,
      "etir": 3470,
      "oj": 3471,
      "biz": 3472,
      "mi": 3473,
      "mam": 3474,
      "işim": 3475,
      "dün": 3476,
      "ştır": 3477,
      "ade": 3478,
      "etti": 3479,
      "Al": 3480,
      "nı": 3481,
      "tarih": 3482,
      "Ay": 3483,
      "sar": 3484,
      "zan": 3485,
      "oc": 3486,
      "tü": 3487,
      "diği": 3488,
      "bek": 3489,
      "lardan": 3490,
      "getir": 3491,
      "eri": 3492,
      "sev": 3493,
      "ımı": 3494,
      "likle": 3495,
      "sistem": 3496,
      "üret": 3497,
      "çalışma": 3498,
      "edil": 3499,
      "sağla": 3500,
      "por": 3501,
      "bin": 3502,
      "yın": 3503,
      "lat": 3504,
      "fir": 3505,
      "tut": 3506,
      "lerinin": 3507,
      "ilgili": 3508,
      "göz": 3509,
      "konu": 3510,
      "enin": 3511,
      "dış": 3512,
      "alın": 3513,
      "yet": 3514,
      "şey": 3515,
      "dık": 3516,
      "oz": 3517,
      "tör": 3518,
      "birlik": 3519,
      "düzen": 3520,
      "ğiniz": 3521,
      "par": 3522,
      "ket": 3523,
      "güven": 3524,
      "farklı": 3525,
      "mil": 3526,
      "cek": 3527,
      "devam": 3528,
      "raf": 3529,
      "içinde": 3530,
      "ab": 3531,
      "arka": 3532,
      "emiz": 3533,
      "sayı": 3534,
      "ib": 3535,
      "diğer": 3536,
      "lendir": 3537,
      "öğren": 3538,
      "söy": 3539,
      "İn": 3540,
      "ülk": 3541,
      "ünü": 3542,
      "per": 3543,
      "lerine": 3544,
      "uç": 3545,
      "oloj": 3546,
      "ızı": 3547,
      "söz": 3548,
      "kr": 3549,
      "olay": 3550,
      "siy": 3551,
      "ünde": 3552,
      "usu": 3553,
      "dön": 3554,
      "itim": 3555,
      "çe": 3556,
      "ika": 3557,
      "sının": 3558,
      "ulaş": 3559,
      "kanı": 3560,
      "dav": 3561,
      "vur": 3562,
      "daki": 3563,
      "üst": 3564,
      "larımız": 3565,
      "olduğunu": 3566,
      "10": 3567,
      "eb": 3568,
      "zor": 3569,
      "dest": 3570,
      "iki": 3571,
      "meye": 3572,
      "birlikte": 3573,
      "tel": 3574,
      "cel": 3575,
      "isinde": 3576,
      "nak": 3577,
      "ulu": 3578,
      "rak": 3579,
      "alık": 3580,
      "Ha": 3581,
      "ilik": 3582,
      "maz": 3583,
      "anı": 3584,
      "uygun": 3585,
      "ilerin": 3586,
      "net": 3587,
      "lerinde": 3588,
      "kazan": 3589,
      "mem": 3590,
      "doğru": 3591,
      "hur": 3592,
      "tıl": 3593,
      "üs": 3594,
      "larla": 3595,
      "hazır": 3596,
      "caktır": 3597,
      "olmak": 3598,
      "eder": 3599,
      "tekn": 3600,
      "ocuk": 3601,
      "yok": 3602,
      "hakk": 3603,
      "bur": 3604,
      "aynı": 3605,
      "fiyat": 3606,
      "mı": 3607,
      "anda": 3608,
      "para": 3609,
      "mıştır": 3610,
      "Türkiye": 3611,
      "ku": 3612,
      "tam": 3613,
      "olur": 3614,
      "ihti": 3615,
      "ılı": 3616,
      "liğ": 3617,
      "malı": 3618,
      "ide": 3619,
      "abil": 3620,
      "Kur": 3621,
      "gelen": 3622,
      "önce": 3623,
      "ediyor": 3624,
      "Ar": 3625,
      "kim": 3626,
      "tif": 3627,
      "asyon": 3628,
      "yüksek": 3629,
      "Öz": 3630,
      "duy": 3631,
      "işk": 3632,
      "mez": 3633,
      "En": 3634,
      "unuz": 3635,
      "ley": 3636,
      "lanan": 3637,
      "dönem": 3638,
      "ans": 3639,
      "gram": 3640,
      "baz": 3641,
      "İş": 3642,
      "irket": 3643,
      "anın": 3644,
      "gı": 3645,
      "dem": 3646,
      "ilmesi": 3647,
      "şeh": 3648,
      "oluştur": 3649,
      "nin": 3650,
      "do": 3651,
      "çı": 3652,
      "ici": 3653,
      "din": 3654,
      "sıl": 3655,
      "değiş": 3656,
      "sıra": 3657,
      "kö": 3658,
      "lo": 3659,
      "hangi": 3660,
      "201": 3661,
      "eşit": 3662,
      "olması": 3663,
      "yapılan": 3664,
      "usunda": 3665,
      "tur": 3666,
      "sak": 3667,
      "Er": 3668,
      "Bel": 3669,
      "kad": 3670,
      "bölg": 3671,
      "yönet": 3672,
      "tığı": 3673,
      "yardım": 3674,
      "sin": 3675,
      "ayı": 3676,
      "kaç": 3677,
      "pa": 3678,
      "üt": 3679,
      "hiç": 3680,
      "müşt": 3681,
      "gu": 3682,
      "dünya": 3683,
      "ğınız": 3684,
      "sından": 3685,
      "hız": 3686,
      "bet": 3687,
      "del": 3688,
      "gön": 3689,
      "düşün": 3690,
      "haf": 3691,
      "larından": 3692,
      "İl": 3693,
      "ana": 3694,
      "görün": 3695,
      "genel": 3696,
      "bah": 3697,
      "uzun": 3698,
      "luk": 3699,
      "esine": 3700,
      "öyle": 3701,
      "inizi": 3702,
      "lerden": 3703,
      "Gen": 3704,
      "saat": 3705,
      "ihtiya": 3706,
      "üzel": 3707,
      "rıca": 3708,
      "tasar": 3709,
      "olduk": 3710,
      "sta": 3711,
      "nasıl": 3712,
      "üy": 3713,
      "ilir": 3714,
      "biri": 3715,
      "eket": 3716,
      "sade": 3717,
      "lük": 3718,
      "dak": 3719,
      "gerçekleştir": 3720,
      "eyi": 3721,
      "emek": 3722,
      "üzerinde": 3723,
      "kendi": 3724,
      "destek": 3725,
      "oluş": 3726,
      "sam": 3727,
      "inci": 3728,
      "dığ": 3729,
      "hayat": 3730,
      "çev": 3731,
      "belirt": 3732,
      "anla": 3733,
      "ni": 3734,
      "hes": 3735,
      "bulunan": 3736,
      "Her": 3737,
      "ledi": 3738,
      "bit": 3739,
      "ri": 3740,
      "kurul": 3741,
      "Bak": 3742,
      "taşı": 3743,
      "bo": 3744,
      "kullanıl": 3745,
      "çocuk": 3746,
      "çıkar": 3747,
      "ilişk": 3748,
      "üzere": 3749,
      "hakkında": 3750,
      "can": 3751,
      "eğitim": 3752,
      "siyon": 3753,
      "sorun": 3754,
      "202": 3755,
      "film": 3756,
      "mad": 3757,
      "pay": 3758,
      "üç": 3759,
      "güç": 3760,
      "sadece": 3761,
      "açı": 3762,
      "lerimiz": 3763,
      "lim": 3764,
      "dığını": 3765,
      "çöz": 3766,
      "diye": 3767,
      "karar": 3768,
      "Mü": 3769,
      "acak": 3770,
      "deki": 3771,
      "İstan": 3772,
      "taş": 3773,
      "mut": 3774,
      "şirket": 3775,
      "yara": 3776,
      "etmek": 3777,
      "pan": 3778,
      "cih": 3779,
      "dil": 3780,
      "kalit": 3781,
      "eme": 3782,
      "kır": 3783,
      "sık": 3784,
      "yorum": 3785,
      "ifa": 3786,
      "üne": 3787,
      "fer": 3788,
      "Eğ": 3789,
      "uygulama": 3790,
      "Pro": 3791,
      "osyal": 3792,
      "Av": 3793,
      "esini": 3794,
      "içerisinde": 3795,
      "Mer": 3796,
      "lerinden": 3797,
      "manın": 3798,
      "sik": 3799,
      "ümüz": 3800,
      "Türkiy": 3801,
      "Ak": 3802,
      "başka": 3803,
      "mev": 3804,
      "büt": 3805,
      "syon": 3806,
      "dola": 3807,
      "leme": 3808,
      "mayı": 3809,
      "kolay": 3810,
      "gönder": 3811,
      "tercih": 3812,
      "min": 3813,
      "za": 3814,
      "görev": 3815,
      "ücret": 3816,
      "çeşit": 3817,
      "ge": 3818,
      "sav": 3819,
      "lacak": 3820,
      "bilgi": 3821,
      "ebil": 3822,
      "ebilir": 3823,
      "abilirsiniz": 3824,
      "his": 3825,
      "of": 3826,
      "bun": 3827,
      "ıza": 3828,
      "gan": 3829,
      "plan": 3830,
      "güzel": 3831,
      "lerle": 3832,
      "sebe": 3833,
      "düğ": 3834,
      "he": 3835,
      "yatır": 3836,
      "tor": 3837,
      "kabul": 3838,
      "masına": 3839,
      "birçok": 3840,
      "arası": 3841,
      "yılında": 3842,
      "okta": 3843,
      "abilir": 3844,
      "edilen": 3845,
      "yür": 3846,
      "İstanbul": 3847,
      "pek": 3848,
      "hareket": 3849,
      "önc": 3850,
      "meler": 3851,
      "lığın": 3852,
      "ağı": 3853,
      "ortaya": 3854,
      "tamam": 3855,
      "izi": 3856,
      "ize": 3857,
      "haber": 3858,
      "ilet": 3859,
      "ifade": 3860,
      "proj": 3861,
      "esinin": 3862,
      "efon": 3863,
      "masını": 3864,
      "bazı": 3865,
      "sanız": 3866,
      "15": 3867,
      "lıyor": 3868,
      "muş": 3869,
      "merkez": 3870,
      "Ancak": 3871,
      "Kon": 3872,
      "ila": 3873,
      "iğ": 3874,
      "eyen": 3875,
      "trol": 3876,
      "versit": 3877,
      "Gün": 3878,
      "nokta": 3879,
      "lek": 3880,
      "tat": 3881,
      "dikkat": 3882,
      "bile": 3883,
      "ard": 3884,
      "Son": 3885,
      "ira": 3886,
      "fak": 3887,
      "van": 3888,
      "edilm": 3889,
      "şehir": 3890,
      "iyoruz": 3891,
      "geliş": 3892,
      "aca": 3893,
      "konusunda": 3894,
      "lenen": 3895,
      "hi": 3896,
      "anlam": 3897,
      "yayın": 3898,
      "ucu": 3899,
      "AB": 3900,
      "duğu": 3901,
      "başarı": 3902,
      "bes": 3903,
      "dok": 3904,
      "sağlık": 3905,
      "lak": 3906,
      "araç": 3907,
      "bır": 3908,
      "lantı": 3909,
      "rek": 3910,
      "med": 3911,
      "ğa": 3912,
      "kurum": 3913,
      "lüğ": 3914,
      "program": 3915,
      "kün": 3916,
      "geçir": 3917,
      "Or": 3918,
      "Ara": 3919,
      "kara": 3920,
      "Kan": 3921,
      "paylaş": 3922,
      "yanı": 3923,
      "tu": 3924,
      "atı": 3925,
      "kom": 3926,
      "umuz": 3927,
      "Ma": 3928,
      "kapsam": 3929,
      "pol": 3930,
      "görül": 3931,
      "200": 3932,
      "ancak": 3933,
      "madde": 3934,
      "bilin": 3935,
      "Da": 3936,
      "İs": 3937,
      "inan": 3938,
      "şu": 3939,
      "oto": 3940,
      "azar": 3941,
      "eni": 3942,
      "telefon": 3943,
      "tay": 3944,
      "tah": 3945,
      "üzerine": 3946,
      "ses": 3947,
      "model": 3948,
      "firma": 3949,
      "fes": 3950,
      "çi": 3951,
      "fır": 3952,
      "olabilir": 3953,
      "geliştir": 3954,
      "başvur": 3955,
      "rar": 3956,
      "kol": 3957,
      "lemek": 3958,
      "Bur": 3959,
      "Kar": 3960,
      "üzerinden": 3961,
      "zer": 3962,
      "ternet": 3963,
      "ele": 3964,
      "12": 3965,
      "bölüm": 3966,
      "zar": 3967,
      "yüzde": 3968,
      "edef": 3969,
      "bırak": 3970,
      "50": 3971,
      "yaklaş": 3972,
      "ğimiz": 3973,
      "aya": 3974,
      "kontrol": 3975,
      "uc": 3976,
      "indir": 3977,
      "onom": 3978,
      "Beled": 3979,
      "go": 3980,
      "yanın": 3981,
      "sektör": 3982,
      "kısa": 3983,
      "bar": 3984,
      "yum": 3985,
      "rahat": 3986,
      "elde": 3987,
      "dedi": 3988,
      "ıcı": 3989,
      "madan": 3990,
      "gar": 3991,
      "git": 3992,
      "gil": 3993,
      "Ayrıca": 3994,
      "Başkanı": 3995,
      "suz": 3996,
      "umhur": 3997,
      "kaynak": 3998,
      "cil": 3999,
      "30": 4000,
      "teş": 4001,
      "end": 4002,
      "sil": 4003,
      "daş": 4004,
      "oldukça": 4005,
      "yatırım": 4006,
      "zamanda": 4007,
      "elerin": 4008,
      "lum": 4009,
      "ümkün": 4010,
      "manız": 4011,
      "katı": 4012,
      "izin": 4013,
      "ince": 4014,
      "isini": 4015,
      "olacak": 4016,
      "erj": 4017,
      "uma": 4018,
      "landır": 4019,
      "ındaki": 4020,
      "bilece": 4021,
      "bütün": 4022,
      "com": 4023,
      "kadın": 4024,
      "kişi": 4025,
      "af": 4026,
      "temel": 4027,
      "tic": 4028,
      "gaz": 4029,
      "sınız": 4030,
      "temiz": 4031,
      "bağlı": 4032,
      "teknoloj": 4033,
      "sonuç": 4034,
      "Genel": 4035,
      "laya": 4036,
      "mümkün": 4037,
      "tap": 4038,
      "onun": 4039,
      "TL": 4040,
      "ilere": 4041,
      "sosyal": 4042,
      "istedi": 4043,
      "Tek": 4044,
      "ing": 4045,
      "ştırma": 4046,
      "isine": 4047,
      "kullanıcı": 4048,
      "herhangi": 4049,
      "mik": 4050,
      "ayda": 4051,
      "bor": 4052,
      "yöntem": 4053,
      "elek": 4054,
      "yoruz": 4055,
      "ışı": 4056,
      "yerine": 4057,
      "duğ": 4058,
      "gelir": 4059,
      "Dün": 4060,
      "tedav": 4061,
      "kesin": 4062,
      "hay": 4063,
      "og": 4064,
      "sunu": 4065,
      "hedef": 4066,
      "konuş": 4067,
      "cü": 4068,
      "kil": 4069,
      "yakın": 4070,
      "lah": 4071,
      "vardır": 4072,
      "ayr": 4073,
      "Özel": 4074,
      "yazı": 4075,
      "hil": 4076,
      "tük": 4077,
      "miştir": 4078,
      "Cumhur": 4079,
      "hast": 4080,
      "ünkü": 4081,
      "ildi": 4082,
      "uluk": 4083,
      "18": 4084,
      "AR": 4085,
      "veren": 4086,
      "öde": 4087,
      "onu": 4088,
      "yaşam": 4089,
      "parça": 4090,
      "hızlı": 4091,
      "size": 4092,
      "kül": 4093,
      "erli": 4094,
      "yay": 4095,
      "ayar": 4096,
      "zem": 4097,
      "spor": 4098,
      "ait": 4099,
      "urt": 4100,
      "umlu": 4101,
      "Bunun": 4102,
      "ekonom": 4103,
      "itib": 4104,
      "gru": 4105,
      "değerlendir": 4106,
      "incel": 4107,
      "ünün": 4108,
      "gereken": 4109,
      "tab": 4110,
      "küç": 4111,
      "oğun": 4112,
      "Ev": 4113,
      "Yap": 4114,
      "ho": 4115,
      "takip": 4116,
      "aliyet": 4117,
      "soru": 4118,
      "hale": 4119,
      "eti": 4120,
      "yada": 4121,
      "milyon": 4122,
      "enek": 4123,
      "nun": 4124,
      "büy": 4125,
      "ibi": 4126,
      "serv": 4127,
      "gin": 4128,
      "ihtiyaç": 4129,
      "olup": 4130,
      "ladı": 4131,
      "AN": 4132,
      "çözüm": 4133,
      "yardımcı": 4134,
      "bol": 4135,
      "süre": 4136,
      "taj": 4137,
      "elim": 4138,
      "ısı": 4139,
      "undan": 4140,
      "ner": 4141,
      "şa": 4142,
      "özellik": 4143,
      "labilir": 4144,
      "görüş": 4145,
      "Ben": 4146,
      "deney": 4147,
      "müşter": 4148,
      "nek": 4149,
      "lis": 4150,
      "gerekir": 4151,
      "uğ": 4152,
      "geri": 4153,
      "tep": 4154,
      "ris": 4155,
      "kür": 4156,
      "öğrenc": 4157,
      "kam": 4158,
      "Ne": 4159,
      "üp": 4160,
      "altında": 4161,
      "form": 4162,
      "isel": 4163,
      "ılan": 4164,
      "iyaret": 4165,
      "bilecek": 4166,
      "ardından": 4167,
      "hafta": 4168,
      "Avru": 4169,
      "etkin": 4170,
      "meden": 4171,
      "çalışan": 4172,
      "iyasa": 4173,
      "oğlu": 4174,
      "öğret": 4175,
      "tanı": 4176,
      "kıs": 4177,
      "gın": 4178,
      "leyen": 4179,
      "val": 4180,
      "boy": 4181,
      "kayı": 4182,
      "Ser": 4183,
      "ER": 4184,
      "det": 4185,
      "siya": 4186,
      "aj": 4187,
      "bas": 4188,
      "oğraf": 4189,
      "larıyla": 4190,
      "hük": 4191,
      "renk": 4192,
      "yaptı": 4193,
      "ıntı": 4194,
      "dolayı": 4195,
      "ılır": 4196,
      "sınır": 4197,
      "faaliyet": 4198,
      "meyi": 4199,
      "Doğ": 4200,
      "günü": 4201,
      "oda": 4202,
      "lanır": 4203,
      "yapan": 4204,
      "uzman": 4205,
      "inize": 4206,
      "up": 4207,
      "Bakan": 4208,
      "mar": 4209,
      "küçük": 4210,
      "web": 4211,
      "değiştir": 4212,
      "hemen": 4213,
      "isim": 4214,
      "adı": 4215,
      "yağ": 4216,
      "ilecek": 4217,
      "ıp": 4218,
      "hesap": 4219,
      "dep": 4220,
      "açıklama": 4221,
      "indeki": 4222,
      "gerekli": 4223,
      "işlet": 4224,
      "bilgiler": 4225,
      "San": 4226,
      "gider": 4227,
      "değişik": 4228,
      "Mil": 4229,
      "cut": 4230,
      "ziyaret": 4231,
      "itibar": 4232,
      "fayda": 4233,
      "100": 4234,
      "satış": 4235,
      "sayesinde": 4236,
      "larınız": 4237,
      "üyük": 4238,
      "niversit": 4239,
      "lanma": 4240,
      "ipar": 4241,
      "iyorum": 4242,
      "sürec": 4243,
      "amaç": 4244,
      "amacı": 4245,
      "devlet": 4246,
      "eği": 4247,
      "dahil": 4248,
      "nedeniyle": 4249,
      "oku": 4250,
      "ılması": 4251,
      "ig": 4252,
      "hiçbir": 4253,
      "co": 4254,
      "ilmiş": 4255,
      "As": 4256,
      "rü": 4257,
      "Büyük": 4258,
      "Dev": 4259,
      "kav": 4260,
      "ölç": 4261,
      "bildir": 4262,
      "yazılı": 4263,
      "internet": 4264,
      "AK": 4265,
      "nın": 4266,
      "set": 4267,
      "engel": 4268,
      "konusu": 4269,
      "Başkan": 4270,
      "vat": 4271,
      "elektr": 4272,
      "ipariş": 4273,
      "anlaş": 4274,
      "yarak": 4275,
      "yapmak": 4276,
      "etim": 4277,
      "cihaz": 4278,
      "Kul": 4279,
      "ğımız": 4280,
      "iletişim": 4281,
      "Üniversit": 4282,
      "almak": 4283,
      "hava": 4284,
      "uyu": 4285,
      "lım": 4286,
      "talep": 4287,
      "uslar": 4288,
      "ister": 4289,
      "hep": 4290,
      "lanması": 4291,
      "yaşan": 4292,
      "tav": 4293,
      "layan": 4294,
      "14": 4295,
      "ABD": 4296,
      "özellikle": 4297,
      "laştır": 4298,
      "yüksel": 4299,
      "cağı": 4300,
      "İz": 4301,
      "Ko": 4302,
      "zarar": 4303,
      "geçen": 4304,
      "koy": 4305,
      "bakım": 4306,
      "toplum": 4307,
      "nedenle": 4308,
      "ebilirsiniz": 4309,
      "seviy": 4310,
      "bugün": 4311,
      "Rus": 4312,
      "tin": 4313,
      "isinin": 4314,
      "ikay": 4315,
      "istan": 4316,
      "eğin": 4317,
      "ayrı": 4318,
      "vi": 4319,
      "marka": 4320,
      "oran": 4321,
      "satın": 4322,
      "dö": 4323,
      "değildir": 4324,
      "malıdır": 4325,
      "uyla": 4326,
      "tım": 4327,
      "Biz": 4328,
      "yönelik": 4329,
      "isyon": 4330,
      "Yön": 4331,
      "uzak": 4332,
      "aldı": 4333,
      "lamak": 4334,
      "dayan": 4335,
      "boyun": 4336,
      "ga": 4337,
      "ışma": 4338,
      "edin": 4339,
      "Der": 4340,
      "kut": 4341,
      "okul": 4342,
      "çeşitli": 4343,
      "kullanım": 4344,
      "landı": 4345,
      "Bil": 4346,
      "sunuz": 4347,
      "ağır": 4348,
      "olmayan": 4349,
      "rol": 4350,
      "Ön": 4351,
      "piyasa": 4352,
      "artık": 4353,
      "mevcut": 4354,
      "24": 4355,
      "mel": 4356,
      "hizmeti": 4357,
      "Kara": 4358,
      "ker": 4359,
      "bey": 4360,
      "İç": 4361,
      "uyor": 4362,
      "üyor": 4363,
      "üretim": 4364,
      "kayb": 4365,
      "Daha": 4366,
      "otor": 4367,
      "dül": 4368,
      "mamız": 4369,
      "diğini": 4370,
      "mir": 4371,
      "kaldır": 4372,
      "lin": 4373,
      "etkil": 4374,
      "koş": 4375,
      "ekip": 4376,
      "hasta": 4377,
      "adres": 4378,
      "sizin": 4379,
      "müz": 4380,
      "ğına": 4381,
      "enerj": 4382,
      "yu": 4383,
      "mat": 4384,
      "ortam": 4385,
      "halinde": 4386,
      "edik": 4387,
      "sıyla": 4388,
      "11": 4389,
      "ilişkin": 4390,
      "umu": 4391,
      "Yeni": 4392,
      "2022": 4393,
      "tasarım": 4394,
      "ital": 4395,
      "yarar": 4396,
      "ştu": 4397,
      "yo": 4398,
      "inc": 4399,
      "iade": 4400,
      "mesini": 4401,
      "elere": 4402,
      "mas": 4403,
      "boz": 4404,
      "Müdür": 4405,
      "böyle": 4406,
      "yeniden": 4407,
      "yaptığı": 4408,
      "hurda": 4409,
      "lardır": 4410,
      "sebep": 4411,
      "Merkez": 4412,
      "fik": 4413,
      "diz": 4414,
      "ham": 4415,
      "seniz": 4416,
      "dal": 4417,
      "On": 4418,
      "leye": 4419,
      "arkadaş": 4420,
      "nız": 4421,
      "ari": 4422,
      "leriyle": 4423,
      "şim": 4424,
      "öner": 4425,
      "meniz": 4426,
      "ekli": 4427,
      "olacaktır": 4428,
      "yız": 4429,
      "çevr": 4430,
      "vak": 4431,
      "tekrar": 4432,
      "laması": 4433,
      "ona": 4434,
      "şart": 4435,
      "teknik": 4436,
      "mobil": 4437,
      "alma": 4438,
      "şekl": 4439,
      "dana": 4440,
      "kullanılan": 4441,
      "dışında": 4442,
      "ilerimiz": 4443,
      "kuruluş": 4444,
      "yi": 4445,
      "süreç": 4446,
      "aber": 4447,
      "nit": 4448,
      "tama": 4449,
      "kek": 4450,
      "fi": 4451,
      "banka": 4452,
      "cılık": 4453,
      "Fak": 4454,
      "mesine": 4455,
      "sayfa": 4456,
      "16": 4457,
      "elerde": 4458,
      "deniz": 4459,
      "etkili": 4460,
      "po": 4461,
      "kapsamında": 4462,
      "dair": 4463,
      "uslararası": 4464,
      "lanmış": 4465,
      "durumda": 4466,
      "Par": 4467,
      "savaş": 4468,
      "organ": 4469,
      "genç": 4470,
      "bunun": 4471,
      "ortak": 4472,
      "Avrupa": 4473,
      "aşağı": 4474,
      "sanat": 4475,
      "sine": 4476,
      "hüküm": 4477,
      "türlü": 4478,
      "Yıl": 4479,
      "sürdür": 4480,
      "Sit": 4481,
      "alım": 4482,
      "otoğraf": 4483,
      "müca": 4484,
      "boyunca": 4485,
      "yacak": 4486,
      "ch": 4487,
      "teslim": 4488,
      "Hal": 4489,
      "pit": 4490,
      "gerçekleş": 4491,
      "Ankara": 4492,
      "edilir": 4493,
      "adım": 4494,
      "olun": 4495,
      "eski": 4496,
      "El": 4497,
      "num": 4498,
      "beraber": 4499,
      "Top": 4500,
      "yine": 4501,
      "Eğer": 4502,
      "eniz": 4503,
      "AL": 4504,
      "Tüm": 4505,
      "medi": 4506,
      "kın": 4507,
      "biliyor": 4508,
      "ton": 4509,
      "takım": 4510,
      "matik": 4511,
      "asıl": 4512,
      "ent": 4513,
      "kız": 4514,
      "doğal": 4515,
      "ettiği": 4516,
      "derece": 4517,
      "Uz": 4518,
      "Ama": 4519,
      "emin": 4520,
      "lıdır": 4521,
      "ğında": 4522,
      "pazar": 4523,
      "Ür": 4524,
      "artır": 4525,
      "fen": 4526,
      "bunu": 4527,
      "İngil": 4528,
      "menin": 4529,
      "kem": 4530,
      "ilç": 4531,
      "muştur": 4532,
      "cam": 4533,
      "gor": 4534,
      "güncel": 4535,
      "aracı": 4536,
      "Dünya": 4537,
      "duk": 4538,
      "Gel": 4539,
      "ani": 4540,
      "Yar": 4541,
      "birbir": 4542,
      "cin": 4543,
      "dın": 4544,
      "detay": 4545,
      "Ban": 4546,
      "seçim": 4547,
      "söyledi": 4548,
      "DE": 4549,
      "elidir": 4550,
      "katıl": 4551,
      "ölüm": 4552,
      "luluk": 4553,
      "25": 4554,
      "dim": 4555,
      "sipariş": 4556,
      "Kr": 4557,
      "don": 4558,
      "içi": 4559,
      "çiz": 4560,
      "ecektir": 4561,
      "çoğ": 4562,
      "Ka": 4563,
      "dönüş": 4564,
      "Tar": 4565,
      "ilebilir": 4566,
      "tüket": 4567,
      "gerekti": 4568,
      "isteyen": 4569,
      "başladı": 4570,
      "ırken": 4571,
      "13": 4572,
      "Kor": 4573,
      "ilerini": 4574,
      "haya": 4575,
      "andaş": 4576,
      "kayıt": 4577,
      "eceğ": 4578,
      "çıkan": 4579,
      "geniş": 4580,
      "Gaz": 4581,
      "iyeti": 4582,
      "ört": 4583,
      "dum": 4584,
      "ant": 4585,
      "lıkla": 4586,
      "bay": 4587,
      "yaşa": 4588,
      "000": 4589,
      "usta": 4590,
      "ilan": 4591,
      "deneyim": 4592,
      "tespit": 4593,
      "yaklaşık": 4594,
      "Sağ": 4595,
      "vide": 4596,
      "cer": 4597,
      "gez": 4598,
      "etik": 4599,
      "malzem": 4600,
      "yoğun": 4601,
      "ilerine": 4602,
      "meyen": 4603,
      "sim": 4604,
      "Kal": 4605,
      "Dr": 4606,
      "katkı": 4607,
      "Kı": 4608,
      "sözleş": 4609,
      "kaliteli": 4610,
      "AT": 4611,
      "Belediy": 4612,
      "Ve": 4613,
      "inizin": 4614,
      "İlk": 4615,
      "işi": 4616,
      "içerik": 4617,
      "açısından": 4618,
      "sağlar": 4619,
      "yurt": 4620,
      "sahibi": 4621,
      "Şu": 4622,
      "17": 4623,
      "burada": 4624,
      "br": 4625,
      "karı": 4626,
      "huk": 4627,
      "lül": 4628,
      "yonel": 4629,
      "biraz": 4630,
      "esel": 4631,
      "sman": 4632,
      "cev": 4633,
      "alıyor": 4634,
      "ikinci": 4635,
      "Mo": 4636,
      "kate": 4637,
      "şam": 4638,
      "sıcak": 4639,
      "ayan": 4640,
      "rağ": 4641,
      "tip": 4642,
      "araştırma": 4643,
      "Hak": 4644,
      "dol": 4645,
      "Ör": 4646,
      "ünden": 4647,
      "fesyonel": 4648,
      "sınıf": 4649,
      "dığımız": 4650,
      "belg": 4651,
      "pu": 4652,
      "miktar": 4653,
      "biç": 4654,
      "kuru": 4655,
      "mağ": 4656,
      "teh": 4657,
      "ürünler": 4658,
      "sırasında": 4659,
      "oluyor": 4660,
      "fotoğraf": 4661,
      "ederek": 4662,
      "risk": 4663,
      "bilim": 4664,
      "gür": 4665,
      "şar": 4666,
      "meleri": 4667,
      "kitap": 4668,
      "seçenek": 4669,
      "bat": 4670,
      "ticaret": 4671,
      "so": 4672,
      "sur": 4673,
      "kişiler": 4674,
      "yani": 4675,
      "Çünkü": 4676,
      "plat": 4677,
      "yalnız": 4678,
      "kab": 4679,
      "emizde": 4680,
      "koşul": 4681,
      "olsa": 4682,
      "In": 4683,
      "ılmış": 4684,
      "yasa": 4685,
      "tra": 4686,
      "maları": 4687,
      "yemek": 4688,
      "Amer": 4689,
      "ıştır": 4690,
      "ışık": 4691,
      "ift": 4692,
      "servis": 4693,
      "stra": 4694,
      "cağını": 4695,
      "verilen": 4696,
      "For": 4697,
      "kah": 4698,
      "çağ": 4699,
      "köy": 4700,
      "polit": 4701,
      "mah": 4702,
      "beklen": 4703,
      "tamamen": 4704,
      "ail": 4705,
      "yönetim": 4706,
      "kişinin": 4707,
      "adına": 4708,
      "lında": 4709,
      "larınızı": 4710,
      "Kom": 4711,
      "yıcı": 4712,
      "rağmen": 4713,
      "ınıza": 4714,
      "Sa": 4715,
      "hastalık": 4716,
      "lış": 4717,
      "eşya": 4718,
      "bulunmaktadır": 4719,
      "Tur": 4720,
      "geldi": 4721,
      "tion": 4722,
      "ov": 4723,
      "edecek": 4724,
      "bizim": 4725,
      "yapar": 4726,
      "lilik": 4727,
      "dos": 4728,
      "hav": 4729,
      "isayar": 4730,
      "iri": 4731,
      "iliği": 4732,
      "benim": 4733,
      "bancı": 4734,
      "Mu": 4735,
      "line": 4736,
      "başvuru": 4737,
      "Eğitim": 4738,
      "Türkiyede": 4739,
      "Kullan": 4740,
      "dam": 4741,
      "olsun": 4742,
      "str": 4743,
      "diy": 4744,
      "aktar": 4745,
      "Devlet": 4746,
      "düşük": 4747,
      "yaka": 4748,
      "saç": 4749,
      "sistemi": 4750,
      "veriş": 4751,
      "esinden": 4752,
      "lay": 4753,
      "sorum": 4754,
      "vatandaş": 4755,
      "dığında": 4756,
      "fil": 4757,
      "doğr": 4758,
      "Ro": 4759,
      "otur": 4760,
      "sem": 4761,
      "saldır": 4762,
      "boş": 4763,
      "üler": 4764,
      "ayak": 4765,
      "Alman": 4766,
      "adet": 4767,
      "bağlantı": 4768,
      "itibaren": 4769,
      "birey": 4770,
      "oyn": 4771,
      "mon": 4772,
      "makin": 4773,
      "inal": 4774,
      "amacıyla": 4775,
      "kişisel": 4776,
      "altı": 4777,
      "yasal": 4778,
      "bal": 4779,
      "yolu": 4780,
      "list": 4781,
      "grup": 4782,
      "üle": 4783,
      "kapı": 4784,
      "eceği": 4785,
      "istiyor": 4786,
      "imde": 4787,
      "sürekli": 4788,
      "sey": 4789,
      "mis": 4790,
      "usal": 4791,
      "sahiptir": 4792,
      "taşıma": 4793,
      "mekte": 4794,
      "Haz": 4795,
      "sü": 4796,
      "Ul": 4797,
      "ex": 4798,
      "bize": 4799,
      "ödeme": 4800,
      "mekan": 4801,
      "istik": 4802,
      "Su": 4803,
      "dakika": 4804,
      "edilmesi": 4805,
      "lığını": 4806,
      "yanında": 4807,
      "onik": 4808,
      "suç": 4809,
      "ekonomik": 4810,
      "Tem": 4811,
      "jital": 4812,
      "istediğiniz": 4813,
      "gerekmektedir": 4814,
      "Özellikle": 4815,
      "Bun": 4816,
      "pak": 4817,
      "Türkiyenin": 4818,
      "ac": 4819,
      "şeklinde": 4820,
      "diş": 4821,
      "araya": 4822,
      "elerinin": 4823,
      "pat": 4824,
      "laka": 4825,
      "Es": 4826,
      "yapılacak": 4827,
      "ime": 4828,
      "motor": 4829,
      "uğra": 4830,
      "kir": 4831,
      "MA": 4832,
      "çar": 4833,
      "yaptır": 4834,
      "mayan": 4835,
      "altına": 4836,
      "Öğ": 4837,
      "Oy": 4838,
      "blem": 4839,
      "cid": 4840,
      "izm": 4841,
      "maç": 4842,
      "aşı": 4843,
      "birkaç": 4844,
      "avan": 4845,
      "güçlü": 4846,
      "tanım": 4847,
      "anal": 4848,
      "kültür": 4849,
      "toplam": 4850,
      "karşılaş": 4851,
      "ted": 4852,
      "İk": 4853,
      "günlük": 4854,
      "elerini": 4855,
      "forman": 4856,
      "ilerinin": 4857,
      "ıldı": 4858,
      "dele": 4859,
      "azı": 4860,
      "şi": 4861,
      "pr": 4862,
      "sizlere": 4863,
      "dağı": 4864,
      "davran": 4865,
      "İnsan": 4866,
      "eg": 4867,
      "Tekn": 4868,
      "ök": 4869,
      "başkan": 4870,
      "ço": 4871,
      "hey": 4872,
      "Mar": 4873,
      "oluşan": 4874,
      "çıktı": 4875,
      "imizi": 4876,
      "od": 4877,
      "fat": 4878,
      "ormal": 4879,
      "neğin": 4880,
      "ilendir": 4881,
      "zen": 4882,
      "iddi": 4883,
      "lenmesi": 4884,
      "şık": 4885,
      "panya": 4886,
      "işaret": 4887,
      "baba": 4888,
      "eksik": 4889,
      "Bey": 4890,
      "Fran": 4891,
      "kötü": 4892,
      "üşt": 4893,
      "Ürün": 4894,
      "tıcı": 4895,
      "40": 4896,
      "profesyonel": 4897,
      "temsil": 4898,
      "ıyoruz": 4899,
      "inşa": 4900,
      "isten": 4901,
      "durumunda": 4902,
      "199": 4903,
      "ücretsiz": 4904,
      "koru": 4905,
      "erken": 4906,
      "tec": 4907,
      "kısı": 4908,
      "elikle": 4909,
      "gelecek": 4910,
      "kredi": 4911,
      "aray": 4912,
      "haline": 4913,
      "ayın": 4914,
      "güvenlik": 4915,
      "gerekiyor": 4916,
      "Uy": 4917,
      "meydana": 4918,
      "devr": 4919,
      "osta": 4920,
      "tedir": 4921,
      "geçmiş": 4922,
      "çer": 4923,
      "key": 4924,
      "hiss": 4925,
      "ders": 4926,
      "ekran": 4927,
      "lüğü": 4928,
      "ğız": 4929,
      "vet": 4930,
      "muh": 4931,
      "kargo": 4932,
      "lulu": 4933,
      "liğini": 4934,
      "mıştı": 4935,
      "oper": 4936,
      "lif": 4937,
      "ayrıca": 4938,
      "gun": 4939,
      "stik": 4940,
      "Üniversitesi": 4941,
      "problem": 4942,
      "medya": 4943,
      "fet": 4944,
      "tarihi": 4945,
      "poz": 4946,
      "dıkları": 4947,
      "başarılı": 4948,
      "Kap": 4949,
      "unut": 4950,
      "kalan": 4951,
      "Ey": 4952,
      "Kay": 4953,
      "ilerek": 4954,
      "üğ": 4955,
      "bulunu": 4956,
      "soğ": 4957,
      "Ver": 4958,
      "ürünleri": 4959,
      "kent": 4960,
      "Dem": 4961,
      "ann": 4962,
      "sinde": 4963,
      "gal": 4964,
      "Osman": 4965,
      "dosya": 4966,
      "aşama": 4967,
      "onay": 4968,
      "dışı": 4969,
      "ME": 4970,
      "zı": 4971,
      "has": 4972,
      "dolar": 4973,
      "canlı": 4974,
      "2021": 4975,
      "Aynı": 4976,
      "luğ": 4977,
      "doğan": 4978,
      "ke": 4979,
      "üncü": 4980,
      "dek": 4981,
      "imize": 4982,
      "rapor": 4983,
      "kart": 4984,
      "imizin": 4985,
      "müşteri": 4986,
      "durumu": 4987,
      "performan": 4988,
      "varsa": 4989,
      "kamu": 4990,
      "değişiklik": 4991,
      "avantaj": 4992,
      "test": 4993,
      "dıktan": 4994,
      "alanında": 4995,
      "örnek": 4996,
      "emez": 4997,
      "tedavi": 4998,
      "kin": 4999,
      "asit": 5000,
      "lerce": 5001,
      "anti": 5002,
      "Belediye": 5003,
      "60": 5004,
      "İzmir": 5005,
      "görüntü": 5006,
      "dük": 5007,
      "elen": 5008,
      "video": 5009,
      "ehir": 5010,
      "imkan": 5011,
      "erkek": 5012,
      "ilaç": 5013,
      "halk": 5014,
      "ılma": 5015,
      "elerine": 5016,
      "Yük": 5017,
      "örgü": 5018,
      "ww": 5019,
      "tim": 5020,
      "genellikle": 5021,
      "ayır": 5022,
      "konuda": 5023,
      "alır": 5024,
      "Fakat": 5025,
      "benzer": 5026,
      "sayılı": 5027,
      "oyuncu": 5028,
      "tas": 5029,
      "arasındaki": 5030,
      "işe": 5031,
      "ima": 5032,
      "geliyor": 5033,
      "yeterli": 5034,
      "bilmektedir": 5035,
      "elerinde": 5036,
      "Böyle": 5037,
      "hesab": 5038,
      "eki": 5039,
      "hen": 5040,
      "tesis": 5041,
      "sonrasında": 5042,
      "öm": 5043,
      "kilo": 5044,
      "sol": 5045,
      "iliğ": 5046,
      "giz": 5047,
      "evi": 5048,
      "isti": 5049,
      "yüzden": 5050,
      "ınızı": 5051,
      "Web": 5052,
      "inizde": 5053,
      "uygulan": 5054,
      "nes": 5055,
      "yana": 5056,
      "person": 5057,
      "Ek": 5058,
      "dava": 5059,
      "ipto": 5060,
      "Söz": 5061,
      "İN": 5062,
      "eser": 5063,
      "ht": 5064,
      "hatır": 5065,
      "Gör": 5066,
      "elektrik": 5067,
      "yıllık": 5068,
      "Siz": 5069,
      "sağlıklı": 5070,
      "oloji": 5071,
      "sig": 5072,
      "Nasıl": 5073,
      "beri": 5074,
      "rafik": 5075,
      "aşır": 5076,
      "Değ": 5077,
      "eksiyon": 5078,
      "geçti": 5079,
      "karak": 5080,
      "Geç": 5081,
      "enerji": 5082,
      "zorunda": 5083,
      "benz": 5084,
      "edebilirsiniz": 5085,
      "toplantı": 5086,
      "ünüz": 5087,
      "memnun": 5088,
      "deli": 5089,
      "Çok": 5090,
      "gec": 5091,
      "izyon": 5092,
      "bon": 5093,
      "ilmiştir": 5094,
      "akıl": 5095,
      "tej": 5096,
      "yalı": 5097,
      "Bay": 5098,
      "fon": 5099,
      "cevap": 5100,
      "yav": 5101,
      "yıp": 5102,
      "Kür": 5103,
      "diğimiz": 5104,
      "vaz": 5105,
      "zon": 5106,
      "est": 5107,
      "vil": 5108,
      "Be": 5109,
      "luğu": 5110,
      "verir": 5111,
      "anlat": 5112,
      "masa": 5113,
      "bula": 5114,
      "artış": 5115,
      "okra": 5116,
      "Alt": 5117,
      "iği": 5118,
      "osu": 5119,
      "müş": 5120,
      "TE": 5121,
      "sonrası": 5122,
      "düzey": 5123,
      "hayvan": 5124,
      "başkanı": 5125,
      "giriş": 5126,
      "giy": 5127,
      "ata": 5128,
      "imli": 5129,
      "IN": 5130,
      "alışveriş": 5131,
      "yapılır": 5132,
      "aldığı": 5133,
      "dart": 5134,
      "Vi": 5135,
      "boyut": 5136,
      "lıklı": 5137,
      "odak": 5138,
      "Han": 5139,
      "dünyanın": 5140,
      "neler": 5141,
      "Et": 5142,
      "yabancı": 5143,
      "Gü": 5144,
      "liyor": 5145,
      "belli": 5146,
      "hastan": 5147,
      "diyor": 5148,
      "tarihinde": 5149,
      "sonucu": 5150,
      "ıs": 5151,
      "aday": 5152,
      "dört": 5153,
      "Ah": 5154,
      "edeki": 5155,
      "bilgisayar": 5156,
      "belirlen": 5157,
      "ciddi": 5158,
      "Bit": 5159,
      "ağrı": 5160,
      "doktor": 5161,
      "SE": 5162,
      "iyatı": 5163,
      "milyar": 5164,
      "kelim": 5165,
      "larca": 5166,
      "veri": 5167,
      "vek": 5168,
      "rah": 5169,
      "ela": 5170,
      "platform": 5171,
      "LE": 5172,
      "lerinizi": 5173,
      "lider": 5174,
      "2020": 5175,
      "yürüt": 5176,
      "üf": 5177,
      "mesaj": 5178,
      "teki": 5179,
      "bilmek": 5180,
      "bağım": 5181,
      "Ter": 5182,
      "işlemi": 5183,
      "önemlidir": 5184,
      "lamaya": 5185,
      "ite": 5186,
      "tez": 5187,
      "ümüzde": 5188,
      "Ba": 5189,
      "eceğiniz": 5190,
      "sağlayan": 5191,
      "baskı": 5192,
      "lenme": 5193,
      "tart": 5194,
      "çift": 5195,
      "olojik": 5196,
      "tiv": 5197,
      "fiyatları": 5198,
      "olmaya": 5199,
      "ilmektedir": 5200,
      "üsü": 5201,
      "Tak": 5202,
      "Yaz": 5203,
      "kop": 5204,
      "80": 5205,
      "sağlamak": 5206,
      "Fir": 5207,
      "lerdir": 5208,
      "aten": 5209,
      "zu": 5210,
      "sizi": 5211,
      "günde": 5212,
      "bı": 5213,
      "ceğ": 5214,
      "Çocuk": 5215,
      "sağlaya": 5216,
      "ğım": 5217,
      "herkes": 5218,
      "muz": 5219,
      "Per": 5220,
      "miyor": 5221,
      "etkinlik": 5222,
      "yansı": 5223,
      "Kad": 5224,
      "Sav": 5225,
      "Bugün": 5226,
      "ğının": 5227,
      "ekim": 5228,
      "ruh": 5229,
      "kısm": 5230,
      "lamaz": 5231,
      "ray": 5232,
      "tabi": 5233,
      "uluslararası": 5234,
      "Anad": 5235,
      "uar": 5236,
      "tma": 5237,
      "emi": 5238,
      "kanal": 5239,
      "adam": 5240,
      "Ta": 5241,
      "sonunda": 5242,
      "beğ": 5243,
      "Sen": 5244,
      "hall": 5245,
      "anlar": 5246,
      "cının": 5247,
      "Mal": 5248,
      "the": 5249,
      "diğinde": 5250,
      "çeve": 5251,
      "layarak": 5252,
      "düğü": 5253,
      "HP": 5254,
      "düşünü": 5255,
      "adan": 5256,
      "enf": 5257,
      "kural": 5258,
      "Met": 5259,
      "Har": 5260,
      "iversit": 5261,
      "hata": 5262,
      "pet": 5263,
      "izasyon": 5264,
      "beyaz": 5265,
      "Hem": 5266,
      "yazar": 5267,
      "çocu": 5268,
      "kendini": 5269,
      "Belediyesi": 5270,
      "merak": 5271,
      "23": 5272,
      "Go": 5273,
      "Banka": 5274,
      "alanda": 5275,
      "sayıda": 5276,
      "part": 5277,
      "basın": 5278,
      "güvenli": 5279,
      "üniversit": 5280,
      "cılar": 5281,
      "sitesi": 5282,
      "insanların": 5283,
      "yapılması": 5284,
      "verdi": 5285,
      "mutlaka": 5286,
      "alınan": 5287,
      "dern": 5288,
      "insanlar": 5289,
      "Mes": 5290,
      "Kır": 5291,
      "dönemde": 5292,
      "arama": 5293,
      "diler": 5294,
      "karakter": 5295,
      "yılı": 5296,
      "bilen": 5297,
      "bulunuyor": 5298,
      "derin": 5299,
      "ceza": 5300,
      "ışman": 5301,
      "ücu": 5302,
      "Rusya": 5303,
      "paket": 5304,
      "Yaş": 5305,
      "teşek": 5306,
      "değerli": 5307,
      "ımıza": 5308,
      "Fa": 5309,
      "inç": 5310,
      "hatta": 5311,
      "Çalış": 5312,
      "öğretmen": 5313,
      "Orta": 5314,
      "kıya": 5315,
      "yapabil": 5316,
      "tanın": 5317,
      "mızı": 5318,
      "Cam": 5319,
      "27": 5320,
      "Em": 5321,
      "değişim": 5322,
      "bulunduğu": 5323,
      "AS": 5324,
      "sayısı": 5325,
      "ülke": 5326,
      "taşın": 5327,
      "asım": 5328,
      "beş": 5329,
      "sonuc": 5330,
      "çıka": 5331,
      "Kam": 5332,
      "kullanarak": 5333,
      "çerçeve": 5334,
      "Şim": 5335,
      "fiz": 5336,
      "dijital": 5337,
      "meli": 5338,
      "dönüşt": 5339,
      "amaz": 5340,
      "fikir": 5341,
      "Hizmet": 5342,
      "hastalı": 5343,
      "Meh": 5344,
      "nerede": 5345,
      "İngiliz": 5346,
      "üme": 5347,
      "hikay": 5348,
      "gazet": 5349,
      "yarı": 5350,
      "dığınız": 5351,
      "taki": 5352,
      "meslek": 5353,
      "demek": 5354,
      "millet": 5355,
      "normal": 5356,
      "yalnızca": 5357,
      "21": 5358,
      "bası": 5359,
      "yerde": 5360,
      "buna": 5361,
      "Ül": 5362,
      "yapma": 5363,
      "verdiği": 5364,
      "reklam": 5365,
      "Do": 5366,
      "mücadele": 5367,
      "resmi": 5368,
      "yanlış": 5369,
      "lasyon": 5370,
      "duyur": 5371,
      "layın": 5372,
      "önünde": 5373,
      "pla": 5374,
      "sürede": 5375,
      "yukarı": 5376,
      "ınca": 5377,
      "vermek": 5378,
      "çünkü": 5379,
      "Güven": 5380,
      "edildi": 5381,
      "aslında": 5382,
      "şah": 5383,
      "etmiş": 5384,
      "Pol": 5385,
      "stratej": 5386,
      "posta": 5387,
      "aza": 5388,
      "ori": 5389,
      "siye": 5390,
      "and": 5391,
      "düzenlenen": 5392,
      "yoktur": 5393,
      "ülen": 5394,
      "mail": 5395,
      "22": 5396,
      "başlayan": 5397,
      "Af": 5398,
      "Böl": 5399,
      "Ali": 5400,
      "lığına": 5401,
      "ulması": 5402,
      "pp": 5403,
      "mıyor": 5404,
      "konum": 5405,
      "Kasım": 5406,
      "kas": 5407,
      "fırsat": 5408,
      "imleri": 5409,
      "sağlan": 5410,
      "Tic": 5411,
      "Burada": 5412,
      "bana": 5413,
      "eyiz": 5414,
      "vb": 5415,
      "Kurulu": 5416,
      "etmektedir": 5417,
      "teşekkür": 5418,
      "bilgileri": 5419,
      "yerek": 5420,
      "şan": 5421,
      "ürünü": 5422,
      "lığıyla": 5423,
      "keş": 5424,
      "Ol": 5425,
      "sok": 5426,
      "yık": 5427,
      "Yani": 5428,
      "kategor": 5429,
      "pop": 5430,
      "olum": 5431,
      "ğından": 5432,
      "ediye": 5433,
      "eşil": 5434,
      "standart": 5435,
      "doldur": 5436,
      "ult": 5437,
      "satı": 5438,
      "sızlık": 5439,
      "ayi": 5440,
      "firmamız": 5441,
      "Sor": 5442,
      "esna": 5443,
      "hala": 5444,
      "korun": 5445,
      "Anadolu": 5446,
      "ulan": 5447,
      "esiyle": 5448,
      "olmaktadır": 5449,
      "başına": 5450,
      "Sür": 5451,
      "muha": 5452,
      "niyet": 5453,
      "halı": 5454,
      "puan": 5455,
      "yeri": 5456,
      "işleri": 5457,
      "konuştu": 5458,
      "belirli": 5459,
      "karş": 5460,
      "fakat": 5461,
      "lev": 5462,
      "masının": 5463,
      "ET": 5464,
      "savun": 5465,
      "sınav": 5466,
      "yararlan": 5467,
      "kuş": 5468,
      "yere": 5469,
      "Ana": 5470,
      "şimdi": 5471,
      "yapıla": 5472,
      "tutar": 5473,
      "Bo": 5474,
      "Mah": 5475,
      "ceki": 5476,
      "çoğu": 5477,
      "uyar": 5478,
      "alanı": 5479,
      "ihra": 5480,
      "Ada": 5481,
      "aktif": 5482,
      "tok": 5483,
      "yaşayan": 5484,
      "tecrü": 5485,
      "yazılım": 5486,
      "Ya": 5487,
      "yaygın": 5488,
      "Örneğin": 5489,
      "diğiniz": 5490,
      "ediyoruz": 5491,
      "ayında": 5492,
      "oyna": 5493,
      "toprak": 5494,
      "başında": 5495,
      "Cumhuriyet": 5496,
      "düzenlen": 5497,
      "belirtilen": 5498,
      "bede": 5499,
      "arıza": 5500,
      "maliyet": 5501,
      "katılım": 5502,
      "dağ": 5503,
      "olmaz": 5504,
      "Yönet": 5505,
      "şid": 5506,
      "hizmetleri": 5507,
      "raki": 5508,
      "Aş": 5509,
      "vir": 5510,
      "biy": 5511,
      "Sosyal": 5512,
      "iste": 5513,
      "sorumlu": 5514,
      "Şirket": 5515,
      "ayet": 5516,
      "ıyla": 5517,
      "ölçü": 5518,
      "Büyükşehir": 5519,
      "Bor": 5520,
      "kripto": 5521,
      "bebek": 5522,
      "tiği": 5523,
      "Sağlık": 5524,
      "talya": 5525,
      "personel": 5526,
      "Bar": 5527,
      "ödül": 5528,
      "taz": 5529,
      "eğit": 5530,
      "arttır": 5531,
      "ina": 5532,
      "Kiş": 5533,
      "IC": 5534,
      "Mak": 5535,
      "arım": 5536,
      "lığa": 5537,
      "politika": 5538,
      "takdir": 5539,
      "atıl": 5540,
      "Ger": 5541,
      "idar": 5542,
      "acı": 5543,
      "ücü": 5544,
      "iddia": 5545,
      "kus": 5546,
      "terna": 5547,
      "Bazı": 5548,
      "one": 5549,
      "olmadığı": 5550,
      "leriniz": 5551,
      "yaparak": 5552,
      "zengin": 5553,
      "dile": 5554,
      "gıda": 5555,
      "halde": 5556,
      "70": 5557,
      "tarif": 5558,
      "gerektir": 5559,
      "alarak": 5560,
      "yandan": 5561,
      "içek": 5562,
      "üstü": 5563,
      "balık": 5564,
      "ogle": 5565,
      "zorun": 5566,
      "müzik": 5567,
      "onları": 5568,
      "alına": 5569,
      "Ku": 5570,
      "müda": 5571,
      "Yak": 5572,
      "yavaş": 5573,
      "duvar": 5574,
      "Se": 5575,
      "İR": 5576,
      "iğer": 5577,
      "Film": 5578,
      "hakkı": 5579,
      "Di": 5580,
      "Yüksek": 5581,
      "Sur": 5582,
      "yaptık": 5583,
      "larımızın": 5584,
      "başlan": 5585,
      "merkezi": 5586,
      "yarat": 5587,
      "hafif": 5588,
      "saldırı": 5589,
      "ümü": 5590,
      "ihtiyac": 5591,
      "lez": 5592,
      "olumsuz": 5593,
      "kampanya": 5594,
      "Milli": 5595,
      "ale": 5596,
      "basit": 5597,
      "log": 5598,
      "gösteren": 5599,
      "yayım": 5600,
      "kış": 5601,
      "doğrudan": 5602,
      "özgür": 5603,
      "Tes": 5604,
      "Mehmet": 5605,
      "Uk": 5606,
      "girişim": 5607,
      "vvet": 5608,
      "izle": 5609,
      "vücu": 5610,
      "coin": 5611,
      "zet": 5612,
      "Kurul": 5613,
      "demir": 5614,
      "Kadın": 5615,
      "ortalama": 5616,
      "vurgu": 5617,
      "Diğer": 5618,
      "kişilerin": 5619,
      "türü": 5620,
      "eklen": 5621,
      "anlay": 5622,
      "araştır": 5623,
      "diren": 5624,
      "eceğini": 5625,
      "yeter": 5626,
      "aşa": 5627,
      "resi": 5628,
      "utbol": 5629,
      "deş": 5630,
      "Proj": 5631,
      "etme": 5632,
      "olası": 5633,
      "hend": 5634,
      "ydı": 5635,
      "ladığı": 5636,
      "Spor": 5637,
      "amel": 5638,
      "Eylül": 5639,
      "gesi": 5640,
      "Bakanlığı": 5641,
      "kit": 5642,
      "Yun": 5643,
      "dönüştür": 5644,
      "bileceğiniz": 5645,
      "Res": 5646,
      "Bul": 5647,
      "güvenilir": 5648,
      "Ekim": 5649,
      "uzey": 5650,
      "otel": 5651,
      "olmadığını": 5652,
      "28": 5653,
      "Bah": 5654,
      "azal": 5655,
      "kitab": 5656,
      "güc": 5657,
      "UR": 5658,
      "hayal": 5659,
      "Can": 5660,
      "kala": 5661,
      "bahs": 5662,
      "Çin": 5663,
      "hüc": 5664,
      "kayna": 5665,
      "aile": 5666,
      "olduğunuz": 5667,
      "mec": 5668,
      "online": 5669,
      "dost": 5670,
      "AY": 5671,
      "2019": 5672,
      "eğlen": 5673,
      "gül": 5674,
      "elerden": 5675,
      "ektör": 5676,
      "gece": 5677,
      "taban": 5678,
      "kendisine": 5679,
      "ura": 5680,
      "Bilg": 5681,
      "Ukray": 5682,
      "Sat": 5683,
      "Mart": 5684,
      "Ad": 5685,
      "dız": 5686,
      "başta": 5687,
      "44": 5688,
      "içeren": 5689,
      "düşünc": 5690,
      "imar": 5691,
      "analiz": 5692,
      "bizi": 5693,
      "nedir": 5694,
      "Ke": 5695,
      "dis": 5696,
      "ilgi": 5697,
      "detaylı": 5698,
      "henüz": 5699,
      "sebeb": 5700,
      "cep": 5701,
      "önceki": 5702,
      "süresi": 5703,
      "yapıyor": 5704,
      "Musta": 5705,
      "90": 5706,
      "ettik": 5707,
      "Allah": 5708,
      "anlamına": 5709,
      "yanıt": 5710,
      "leyici": 5711,
      "içine": 5712,
      "teknoloji": 5713,
      "yerinde": 5714,
      "tehlik": 5715,
      "gerçekten": 5716,
      "liğinde": 5717,
      "silah": 5718,
      "uyum": 5719,
      "iliyor": 5720,
      "aydın": 5721,
      "Hat": 5722,
      "larımızı": 5723,
      "işç": 5724,
      "tasyon": 5725,
      "esas": 5726,
      "vardı": 5727,
      "TÜ": 5728,
      "hukuk": 5729,
      "kadro": 5730,
      "bilgilendir": 5731,
      "mük": 5732,
      "adlı": 5733,
      "yse": 5734,
      "ürünün": 5735,
      "Man": 5736,
      "İşte": 5737,
      "ücut": 5738,
      "kum": 5739,
      "site": 5740,
      "bulundu": 5741,
      "defa": 5742,
      "Ki": 5743,
      "EN": 5744,
      "Yardım": 5745,
      "bakan": 5746,
      "seçen": 5747,
      "edilmiş": 5748,
      "lira": 5749,
      "çevir": 5750,
      "manızı": 5751,
      "birliği": 5752,
      "lıklar": 5753,
      "yerleştir": 5754,
      "iyile": 5755,
      "öne": 5756,
      "kullanımı": 5757,
      "sonraki": 5758,
      "Hav": 5759,
      "yapaca": 5760,
      "TV": 5761,
      "sör": 5762,
      "sas": 5763,
      "ticari": 5764,
      "tavsiye": 5765,
      "imin": 5766,
      "Google": 5767,
      "bileceği": 5768,
      "İL": 5769,
      "gören": 5770,
      "bilinen": 5771,
      "Millet": 5772,
      "sıkıntı": 5773,
      "Amerik": 5774,
      "lığının": 5775,
      "eriş": 5776,
      "pen": 5777,
      "26": 5778,
      "arada": 5779,
      "Deniz": 5780,
      "neği": 5781,
      "Mustafa": 5782,
      "mayın": 5783,
      "cat": 5784,
      "edebilir": 5785,
      "lüt": 5786,
      "imizde": 5787,
      "Si": 5788,
      "lığında": 5789,
      "çalışmaları": 5790,
      "sever": 5791,
      "ediy": 5792,
      "imler": 5793,
      "anım": 5794,
      "konuşma": 5795,
      "tahmin": 5796,
      "eylem": 5797,
      "tıyor": 5798,
      "kullanılır": 5799,
      "siyasi": 5800,
      "geçerli": 5801,
      "gerektiğini": 5802,
      "nitelik": 5803,
      "Li": 5804,
      "ulur": 5805,
      "piy": 5806,
      "yılda": 5807,
      "alacak": 5808,
      "önüne": 5809,
      "dit": 5810,
      "yem": 5811,
      "üçüncü": 5812,
      "yahat": 5813,
      "hap": 5814,
      "maktayız": 5815,
      "Kül": 5816,
      "hoş": 5817,
      "iptal": 5818,
      "Sistem": 5819,
      "bina": 5820,
      "durumlarda": 5821,
      "yıllarda": 5822,
      "enk": 5823,
      "kararı": 5824,
      "OS": 5825,
      "cısı": 5826,
      "lanıyor": 5827,
      "olmadan": 5828,
      "Yönetim": 5829,
      "500": 5830,
      "kağı": 5831,
      "kira": 5832,
      "no": 5833,
      "liye": 5834,
      "fiyatı": 5835,
      "yerleş": 5836,
      "Şimdi": 5837,
      "dığım": 5838,
      "not": 5839,
      "sitemiz": 5840,
      "ünlü": 5841,
      "Kend": 5842,
      "sp": 5843,
      "yaşanan": 5844,
      "Sal": 5845,
      "psik": 5846,
      "etkisi": 5847,
      "AD": 5848,
      "bec": 5849,
      "ildiği": 5850,
      "ğinde": 5851,
      "ceği": 5852,
      "ettir": 5853,
      "ürünlerin": 5854,
      "trans": 5855,
      "nam": 5856,
      "Genç": 5857,
      "aran": 5858,
      "tuk": 5859,
      "tis": 5860,
      "dikten": 5861,
      "hus": 5862,
      "ulaşabilirsiniz": 5863,
      "üye": 5864,
      "öden": 5865,
      "bün": 5866,
      "almaktadır": 5867,
      "İslam": 5868,
      "başı": 5869,
      "kenin": 5870,
      "teklif": 5871,
      "başlar": 5872,
      "tarz": 5873,
      "düzenlem": 5874,
      "fin": 5875,
      "oranı": 5876,
      "büs": 5877,
      "ledik": 5878,
      "çat": 5879,
      "işlemleri": 5880,
      "jinal": 5881,
      "örgüt": 5882,
      "2018": 5883,
      "yaşama": 5884,
      "laj": 5885,
      "altın": 5886,
      "ternatif": 5887,
      "özelliği": 5888,
      "çak": 5889,
      "operasyon": 5890,
      "bilmesi": 5891,
      "best": 5892,
      "esindeki": 5893,
      "Sam": 5894,
      "Sev": 5895,
      "dikleri": 5896,
      "ikayet": 5897,
      "elem": 5898,
      "veriler": 5899,
      "Böylece": 5900,
      "alabilirsiniz": 5901,
      "sefer": 5902,
      "ülebilir": 5903,
      "Viven": 5904,
      "döneminde": 5905,
      "manı": 5906,
      "fe": 5907,
      "doğrult": 5908,
      "süz": 5909,
      "sonucunda": 5910,
      "kesinlikle": 5911,
      "ğim": 5912,
      "İZ": 5913,
      "kaybet": 5914,
      "lanmıştır": 5915,
      "imz": 5916,
      "görmek": 5917,
      "ınızda": 5918,
      "mişti": 5919,
      "Erdoğan": 5920,
      "ES": 5921,
      "29": 5922,
      "liğine": 5923,
      "çap": 5924,
      "adde": 5925,
      "liğe": 5926,
      "düzenli": 5927,
      "Mec": 5928,
      "lediği": 5929,
      "sinin": 5930,
      "Sade": 5931,
      "güneş": 5932,
      "Ticaret": 5933,
      "Re": 5934,
      "Tan": 5935,
      "kurtar": 5936,
      "öldür": 5937,
      "kurumsal": 5938,
      "otomatik": 5939,
      "mutlu": 5940,
      "ıyorum": 5941,
      "düşür": 5942,
      "siyel": 5943,
      "Ab": 5944,
      "abilecek": 5945,
      "ındır": 5946,
      "kırı": 5947,
      "kazandır": 5948,
      "hayata": 5949,
      "Yo": 5950,
      "sona": 5951,
      "şiddet": 5952,
      "şehr": 5953,
      "malar": 5954,
      "davranış": 5955,
      "özen": 5956,
      "Haber": 5957,
      "yılın": 5958,
      "doğrultusunda": 5959,
      "veriyor": 5960,
      "ali": 5961,
      "35": 5962,
      "The": 5963,
      "rem": 5964,
      "kavram": 5965,
      "şeyi": 5966,
      "kod": 5967,
      "aşırı": 5968,
      "Türkçe": 5969,
      "soy": 5970,
      "kurt": 5971,
      "aylık": 5972,
      "gelişim": 5973,
      "çalışmalar": 5974,
      "Demir": 5975,
      "sırada": 5976,
      "Merkezi": 5977,
      "ırım": 5978,
      "imkanı": 5979,
      "hendis": 5980,
      "kla": 5981,
      "metre": 5982,
      "Part": 5983,
      "lok": 5984,
      "atan": 5985,
      "idi": 5986,
      "arac": 5987,
      "olmuştur": 5988,
      "gide": 5989,
      "eğer": 5990,
      "kalı": 5991,
      "olanak": 5992,
      "anlamda": 5993,
      "olayı": 5994,
      "Osmanlı": 5995,
      "davet": 5996,
      "may": 5997,
      "ekib": 5998,
      "piş": 5999,
      "olursa": 6000,
      "sini": 6001,
      "ateş": 6002,
      "cm": 6003,
      "gisi": 6004,
      "süt": 6005,
      "faiz": 6006,
      "elektronik": 6007,
      "asker": 6008,
      "evizyon": 6009,
      "büyü": 6010,
      "modern": 6011,
      "nem": 6012,
      "zaten": 6013,
      "madı": 6014,
      "acaktır": 6015,
      "viz": 6016,
      "borç": 6017,
      "sert": 6018,
      "birinci": 6019,
      "liyat": 6020,
      "danışman": 6021,
      "görülen": 6022,
      "ıla": 6023,
      "üman": 6024,
      "liliği": 6025,
      "fizik": 6026,
      "Mayı": 6027,
      "müşterilerimiz": 6028,
      "Ağ": 6029,
      "Co": 6030,
      "Kurum": 6031,
      "Tra": 6032,
      "dünyada": 6033,
      "Nis": 6034,
      "popüler": 6035,
      "nde": 6036,
      "arket": 6037,
      "iran": 6038,
      "yolc": 6039,
      "birim": 6040,
      "şüp": 6041,
      "Den": 6042,
      "red": 6043,
      "Cumhurbaşkanı": 6044,
      "leyerek": 6045,
      "pas": 6046,
      "yapım": 6047,
      "Sonra": 6048,
      "iyer": 6049,
      "beni": 6050,
      "rez": 6051,
      "dolu": 6052,
      "biçimde": 6053,
      "mekteyiz": 6054,
      "çarp": 6055,
      "bahis": 6056,
      "Ken": 6057,
      "onlar": 6058,
      "Ho": 6059,
      "etmeye": 6060,
      "tatil": 6061,
      "ck": 6062,
      "Kim": 6063,
      "duygu": 6064,
      "huku": 6065,
      "Yer": 6066,
      "sındaki": 6067,
      "seri": 6068,
      "süreci": 6069,
      "imza": 6070,
      "proje": 6071,
      "laşma": 6072,
      "Müşt": 6073,
      "lardaki": 6074,
      "sezon": 6075,
      "car": 6076,
      "şikayet": 6077,
      "ortadan": 6078,
      "Kö": 6079,
      "biliriz": 6080,
      "Düz": 6081,
      "mm": 6082,
      "söylem": 6083,
      "kendine": 6084,
      "yapabilirsiniz": 6085,
      "leşme": 6086,
      "kamer": 6087,
      "ğine": 6088,
      "lütfen": 6089,
      "nedeni": 6090,
      "jan": 6091,
      "Aralık": 6092,
      "Açık": 6093,
      "Temmuz": 6094,
      "Ocak": 6095,
      "hasar": 6096,
      "Oyun": 6097,
      "aracılığıyla": 6098,
      "Uluslararası": 6099,
      "Program": 6100,
      "Bakanı": 6101,
      "önlem": 6102,
      "dahi": 6103,
      "duğunu": 6104,
      "emmel": 6105,
      "lal": 6106,
      "kapasit": 6107,
      "mini": 6108,
      "İyi": 6109,
      "numara": 6110,
      "Gir": 6111,
      "Vivense": 6112,
      "Ber": 6113,
      "birisi": 6114,
      "App": 6115,
      "birik": 6116,
      "Kol": 6117,
      "eyin": 6118,
      "uro": 6119,
      "çocuğ": 6120,
      "alternatif": 6121,
      "nüf": 6122,
      "temsilc": 6123,
      "lisans": 6124,
      "öğretim": 6125,
      "eve": 6126,
      "şeyler": 6127,
      "Oto": 6128,
      "US": 6129,
      "götür": 6130,
      "kayde": 6131,
      "elerinden": 6132,
      "kuma": 6133,
      "akşam": 6134,
      "olmasına": 6135,
      "çaba": 6136,
      "doğum": 6137,
      "lerimizi": 6138,
      "mos": 6139,
      "aralı": 6140,
      "lezzet": 6141,
      "abet": 6142,
      "bağımsız": 6143,
      "temin": 6144,
      "dip": 6145,
      "beden": 6146,
      "İS": 6147,
      "terör": 6148,
      "lenir": 6149,
      "larındaki": 6150,
      "Gazet": 6151,
      "kola": 6152,
      "cağız": 6153,
      "45": 6154,
      "Buna": 6155,
      "İK": 6156,
      "tesi": 6157,
      "ener": 6158,
      "büny": 6159,
      "liğin": 6160,
      "gem": 6161,
      "akıllı": 6162,
      "lisi": 6163,
      "lıkları": 6164,
      "far": 6165,
      "uzur": 6166,
      "Peki": 6167,
      "sigorta": 6168,
      "ikti": 6169,
      "ıklı": 6170,
      "tarak": 6171,
      "vücut": 6172,
      "kırmızı": 6173,
      "iter": 6174,
      "AM": 6175,
      "bulunur": 6176,
      "198": 6177,
      "memek": 6178,
      "Seç": 6179,
      "formu": 6180,
      "boya": 6181,
      "Dış": 6182,
      "yerel": 6183,
      "OR": 6184,
      "Parti": 6185,
      "masıyla": 6186,
      "sizlik": 6187,
      "uştur": 6188,
      "ene": 6189,
      "İngilter": 6190,
      "cilt": 6191,
      "sene": 6192,
      "inansal": 6193,
      "bazen": 6194,
      "unsur": 6195,
      "tatürk": 6196,
      "tiler": 6197,
      "Sü": 6198,
      "pozisyon": 6199,
      "tival": 6200,
      "mali": 6201,
      "başar": 6202,
      "Sadece": 6203,
      "Atatürk": 6204,
      "sunan": 6205,
      "mesinin": 6206,
      "takdirde": 6207,
      "aşağıdaki": 6208,
      "larımıza": 6209,
      "Yüz": 6210,
      "Müz": 6211,
      "performans": 6212,
      "vitam": 6213,
      "onların": 6214,
      "belirtti": 6215,
      "Kullanıcı": 6216,
      "görsel": 6217,
      "saha": 6218,
      "almış": 6219,
      "itir": 6220,
      "biridir": 6221,
      "yönetic": 6222,
      "tren": 6223,
      "tığımız": 6224,
      "Uygu": 6225,
      "yüküm": 6226,
      "modelleri": 6227,
      "açılı": 6228,
      "ömür": 6229,
      "keri": 6230,
      "üzerindeki": 6231,
      "memiş": 6232,
      "Prof": 6233,
      "Tel": 6234,
      "rum": 6235,
      "Kemal": 6236,
      "olumlu": 6237,
      "tığını": 6238,
      "AP": 6239,
      "eleştir": 6240,
      "senin": 6241,
      "Gru": 6242,
      "çiçek": 6243,
      "Birliği": 6244,
      "yetiştir": 6245,
      "sunul": 6246,
      "mesaf": 6247,
      "olmuş": 6248,
      "sorumluluk": 6249,
      "İst": 6250,
      "Sanat": 6251,
      "gur": 6252,
      "parçası": 6253,
      "sistemleri": 6254,
      "edilmektedir": 6255,
      "şarkı": 6256,
      "Üst": 6257,
      "layıcı": 6258,
      "belirten": 6259,
      "At": 6260,
      "konut": 6261,
      "tül": 6262,
      "bez": 6263,
      "mız": 6264,
      "sağlam": 6265,
      "belki": 6266,
      "yargı": 6267,
      "seyahat": 6268,
      "bot": 6269,
      "gr": 6270,
      "Ukrayna": 6271,
      "isiniz": 6272,
      "Bal": 6273,
      "kalp": 6274,
      "istiyorsanız": 6275,
      "gösterir": 6276,
      "dro": 6277,
      "yağı": 6278,
      "leyin": 6279,
      "heyec": 6280,
      "TC": 6281,
      "Tarih": 6282,
      "sağlıyor": 6283,
      "KK": 6284,
      "ınızın": 6285,
      "meş": 6286,
      "elt": 6287,
      "keyif": 6288,
      "Sak": 6289,
      "kolayca": 6290,
      "bitk": 6291,
      "sorunu": 6292,
      "maktan": 6293,
      "organizasyon": 6294,
      "bette": 6295,
      "Oda": 6296,
      "rad": 6297,
      "Bağ": 6298,
      "II": 6299,
      "2017": 6300,
      "İnternet": 6301,
      "Elek": 6302,
      "tıp": 6303,
      "anne": 6304,
      "Kültür": 6305,
      "desteği": 6306,
      "yönlendir": 6307,
      "Dan": 6308,
      "vel": 6309,
      "alet": 6310,
      "No": 6311,
      "yapmış": 6312,
      "anında": 6313,
      "Uzun": 6314,
      "anak": 6315,
      "liğinin": 6316,
      "Yunan": 6317,
      "Zaman": 6318,
      "ılmaz": 6319,
      "istek": 6320,
      "sayede": 6321,
      "özellikleri": 6322,
      "atör": 6323,
      "Serv": 6324,
      "çerçevesinde": 6325,
      "Büt": 6326,
      "asyonu": 6327,
      "CHP": 6328,
      "yapmaya": 6329,
      "vakit": 6330,
      "üyle": 6331,
      "hükümet": 6332,
      "polis": 6333,
      "Ülk": 6334,
      "vermektedir": 6335,
      "olduğundan": 6336,
      "Hol": 6337,
      "kuvvet": 6338,
      "ON": 6339,
      "sabah": 6340,
      "Çev": 6341,
      "ediyorum": 6342,
      "faktör": 6343,
      "etmesi": 6344,
      "gücü": 6345,
      "ödem": 6346,
      "yaşı": 6347,
      "So": 6348,
      "kanun": 6349,
      "ces": 6350,
      "utu": 6351,
      "larım": 6352,
      "bulundur": 6353,
      "ediği": 6354,
      "karşısında": 6355,
      "Mayıs": 6356,
      "maması": 6357,
      "zım": 6358,
      "dizi": 6359,
      "65": 6360,
      "lardı": 6361,
      "kısmı": 6362,
      "isinden": 6363,
      "Du": 6364,
      "itik": 6365,
      "ebilecek": 6366,
      "demokra": 6367,
      "soğuk": 6368,
      "Tam": 6369,
      "SS": 6370,
      "luluğu": 6371,
      "ork": 6372,
      "benzeri": 6373,
      "dışarı": 6374,
      "algı": 6375,
      "mükemmel": 6376,
      "yapacak": 6377,
      "mus": 6378,
      "Yu": 6379,
      "kartı": 6380,
      "İh": 6381,
      "ICI": 6382,
      "birden": 6383,
      "görünüm": 6384,
      "vı": 6385,
      "huzur": 6386,
      "cağınız": 6387,
      "edilecek": 6388,
      "iliş": 6389,
      "koruma": 6390,
      "küresel": 6391,
      "kişiye": 6392,
      "elerle": 6393,
      "port": 6394,
      "Ahmet": 6395,
      "yıldır": 6396,
      "uygulaması": 6397,
      "Vak": 6398,
      "futbol": 6399,
      "fabr": 6400,
      "edilebilir": 6401,
      "yarış": 6402,
      "Almanya": 6403,
      "bitir": 6404,
      "ayıf": 6405,
      "BM": 6406,
      "ımızın": 6407,
      "mayacak": 6408,
      "hisset": 6409,
      "isiyle": 6410,
      "alınması": 6411,
      "derec": 6412,
      "evde": 6413,
      "Kanunun": 6414,
      "hor": 6415,
      "HD": 6416,
      "araba": 6417,
      "hane": 6418,
      "bundan": 6419,
      "zorunlu": 6420,
      "Bunu": 6421,
      "2016": 6422,
      "Yat": 6423,
      "başlangı": 6424,
      "alıp": 6425,
      "neredeyse": 6426,
      "İran": 6427,
      "karış": 6428,
      "Antalya": 6429,
      "bakır": 6430,
      "çıkış": 6431,
      "tarım": 6432,
      "yüzey": 6433,
      "olduğuna": 6434,
      "kullandı": 6435,
      "Hastan": 6436,
      "ihtiyacı": 6437,
      "vücud": 6438,
      "iydi": 6439,
      "ülkenin": 6440,
      "sarı": 6441,
      "AŞ": 6442,
      "edim": 6443,
      "çoğun": 6444,
      "şe": 6445,
      "ilerde": 6446,
      "Okul": 6447,
      "mamış": 6448,
      "sap": 6449,
      "karıştır": 6450,
      "yeşil": 6451,
      "arz": 6452,
      "aykırı": 6453,
      "kalın": 6454,
      "cüm": 6455,
      "uçak": 6456,
      "Elektr": 6457,
      "fı": 6458,
      "Öğren": 6459,
      "yönetimi": 6460,
      "las": 6461,
      "ilim": 6462,
      "şeker": 6463,
      "çıkıyor": 6464,
      "buluş": 6465,
      "geçer": 6466,
      "ımızda": 6467,
      "ayrıntı": 6468,
      "Gazi": 6469,
      "Doğu": 6470,
      "Dur": 6471,
      "suyu": 6472,
      "Kat": 6473,
      "öyl": 6474,
      "Kaz": 6475,
      "İki": 6476,
      "insanın": 6477,
      "gol": 6478,
      "oyu": 6479,
      "yapılmaktadır": 6480,
      "eyle": 6481,
      "olmasını": 6482,
      "beğen": 6483,
      "Müdürlüğü": 6484,
      "pra": 6485,
      "landığı": 6486,
      "olduğumuz": 6487,
      "işler": 6488,
      "hbet": 6489,
      "çay": 6490,
      "Haziran": 6491,
      "Amerika": 6492,
      "sunar": 6493,
      "Bursa": 6494,
      "yasak": 6495,
      "hakları": 6496,
      "rik": 6497,
      "yapısı": 6498,
      "yaparken": 6499,
      "zih": 6500,
      "Fiyat": 6501,
      "85": 6502,
      "şem": 6503,
      "wit": 6504,
      "üretic": 6505,
      "unuzu": 6506,
      "Ham": 6507,
      "potan": 6508,
      "aktiv": 6509,
      "Önc": 6510,
      "www": 6511,
      "elç": 6512,
      "Müdürü": 6513,
      "Yan": 6514,
      "gelenek": 6515,
      "Alan": 6516,
      "farkında": 6517,
      "Say": 6518,
      "Batı": 6519,
      "buk": 6520,
      "Forex": 6521,
      "hayatını": 6522,
      "kullanmak": 6523,
      "memiz": 6524,
      "noktada": 6525,
      "Lis": 6526,
      "Kanun": 6527,
      "bunların": 6528,
      "hassas": 6529,
      "aça": 6530,
      "köp": 6531,
      "Haf": 6532,
      "kişilik": 6533,
      "mümkündür": 6534,
      "cilik": 6535,
      "Öğret": 6536,
      "yle": 6537,
      "Yine": 6538,
      "yiy": 6539,
      "yürü": 6540,
      "firması": 6541,
      "larınızın": 6542,
      "anah": 6543,
      "kardeş": 6544,
      "harika": 6545,
      "amız": 6546,
      "sayf": 6547,
      "yapıldı": 6548,
      "sonu": 6549,
      "yoksa": 6550,
      "Bununla": 6551,
      "ruf": 6552,
      "ederken": 6553,
      "Nisan": 6554,
      "çeken": 6555,
      "Gül": 6556,
      "UN": 6557,
      "gra": 6558,
      "Göz": 6559,
      "ciler": 6560,
      "latma": 6561,
      "toplu": 6562,
      "harca": 6563,
      "are": 6564,
      "çelik": 6565,
      "lenmiş": 6566,
      "Bölüm": 6567,
      "ia": 6568,
      "Güney": 6569,
      "İM": 6570,
      "Gala": 6571,
      "anahtar": 6572,
      "kullanılabilir": 6573,
      "dıklarını": 6574,
      "ımızı": 6575,
      "IR": 6576,
      "Tas": 6577,
      "serbest": 6578,
      "afir": 6579,
      "cez": 6580,
      "Araştırma": 6581,
      "ceğini": 6582,
      "programı": 6583,
      "kapalı": 6584,
      "hakim": 6585,
      "Te": 6586,
      "manıza": 6587,
      "ps": 6588,
      "binlerce": 6589,
      "ülkemiz": 6590,
      "tepe": 6591,
      "75": 6592,
      "ediliyor": 6593,
      "verilm": 6594,
      "yola": 6595,
      "mekten": 6596,
      "sof": 6597,
      "değeri": 6598,
      "malısınız": 6599,
      "Kız": 6600,
      "kaya": 6601,
      "öğrenciler": 6602,
      "uzu": 6603,
      "gönül": 6604,
      "açıklamada": 6605,
      "etraf": 6606,
      "Eş": 6607,
      "31": 6608,
      "incelem": 6609,
      "vazgeç": 6610,
      "mezun": 6611,
      "OL": 6612,
      "olmalıdır": 6613,
      "bozuk": 6614,
      "tablo": 6615,
      "erişim": 6616,
      "cen": 6617,
      "Tay": 6618,
      "zinc": 6619,
      "melidir": 6620,
      "nda": 6621,
      "kolayla": 6622,
      "yerini": 6623,
      "asla": 6624,
      "günlerde": 6625,
      "Mahall": 6626,
      "bis": 6627,
      "önceden": 6628,
      "çalıştır": 6629,
      "becer": 6630,
      "Jo": 6631,
      "Pazar": 6632,
      "sokak": 6633,
      "ucuz": 6634,
      "dekor": 6635,
      "giden": 6636,
      "zayıf": 6637,
      "sunuyor": 6638,
      "EL": 6639,
      "toplumsal": 6640,
      "yetkil": 6641,
      "dikkate": 6642,
      "Has": 6643,
      "ştan": 6644,
      "tit": 6645,
      "ettiğini": 6646,
      "ihracat": 6647,
      "Hava": 6648,
      "kendisi": 6649,
      "yakı": 6650,
      "Yal": 6651,
      "terap": 6652,
      "kel": 6653,
      "lanmaktadır": 6654,
      "çalışıyor": 6655,
      "sıkı": 6656,
      "tehdit": 6657,
      "lamış": 6658,
      "gre": 6659,
      "edip": 6660,
      "uyarı": 6661,
      "duyg": 6662,
      "anlayış": 6663,
      "cık": 6664,
      "almaya": 6665,
      "sektöründe": 6666,
      "indirim": 6667,
      "ıldığı": 6668,
      "Üy": 6669,
      "irken": 6670,
      "ust": 6671,
      "bakış": 6672,
      "bulunma": 6673,
      "sabit": 6674,
      "Beş": 6675,
      "rakam": 6676,
      "besin": 6677,
      "anlık": 6678,
      "şif": 6679,
      "cinsel": 6680,
      "kendisini": 6681,
      "sul": 6682,
      "kolaylaştır": 6683,
      "yoluyla": 6684,
      "askeri": 6685,
      "uyan": 6686,
      "ıma": 6687,
      "göç": 6688,
      "zeme": 6689,
      "Kah": 6690,
      "eci": 6691,
      "luluğ": 6692,
      "türk": 6693,
      "Birleş": 6694,
      "bahç": 6695,
      "finansal": 6696,
      "kli": 6697,
      "Aydın": 6698,
      "öğrenci": 6699,
      "yapabilir": 6700,
      "öp": 6701,
      "isimli": 6702,
      "sebebiyle": 6703,
      "güçlendir": 6704,
      "garant": 6705,
      "borsa": 6706,
      "dayanıklı": 6707,
      "edile": 6708,
      "Tabi": 6709,
      "suy": 6710,
      "resim": 6711,
      "yöntemi": 6712,
      "büyüm": 6713,
      "paylaşım": 6714,
      "Ağu": 6715,
      "Bitcoin": 6716,
      "yıllar": 6717,
      "peş": 6718,
      "anlı": 6719,
      "getiren": 6720,
      "Kişisel": 6721,
      "tacak": 6722,
      "2015": 6723,
      "ita": 6724,
      "Ağust": 6725,
      "Küç": 6726,
      "ire": 6727,
      "bölgesinde": 6728,
      "bunları": 6729,
      "çağrı": 6730,
      "terek": 6731,
      "zam": 6732,
      "mevzu": 6733,
      "yenilik": 6734,
      "göl": 6735,
      "lanarak": 6736,
      "ğin": 6737,
      "duğumuz": 6738,
      "öncesi": 6739,
      "ws": 6740,
      "kullanılması": 6741,
      "pazarlama": 6742,
      "sanatçı": 6743,
      "fiziksel": 6744,
      "etki": 6745,
      "DA": 6746,
      "Cami": 6747,
      "uyucu": 6748,
      "siyaset": 6749,
      "kurulu": 6750,
      "eytin": 6751,
      "ofis": 6752,
      "edek": 6753,
      "ulaşım": 6754,
      "istih": 6755,
      "km": 6756,
      "gitti": 6757,
      "Koca": 6758,
      "Ph": 6759,
      "tatlı": 6760,
      "kıl": 6761,
      "ati": 6762,
      "menizi": 6763,
      "fık": 6764,
      "limat": 6765,
      "giderek": 6766,
      "vik": 6767,
      "olmalı": 6768,
      "esin": 6769,
      "usunun": 6770,
      "zamanlarda": 6771,
      "şirketi": 6772,
      "kısım": 6773,
      "buz": 6774,
      "leyic": 6775,
      "La": 6776,
      "tartış": 6777,
      "kurulan": 6778,
      "kafa": 6779,
      "içeriğ": 6780,
      "şer": 6781,
      "diğim": 6782,
      "ameliyat": 6783,
      "bileceğini": 6784,
      "hızla": 6785,
      "ortamda": 6786,
      "eğitimi": 6787,
      "iktidar": 6788,
      "Hay": 6789,
      "Şubat": 6790,
      "kök": 6791,
      "gözlem": 6792,
      "işkin": 6793,
      "geçiş": 6794,
      "Val": 6795,
      "Pan": 6796,
      "mevcuttur": 6797,
      "tüp": 6798,
      "Para": 6799,
      "İY": 6800,
      "Var": 6801,
      "verilir": 6802,
      "varlık": 6803,
      "mada": 6804,
      "etkilen": 6805,
      "qu": 6806,
      "hazırlanan": 6807,
      "kapat": 6808,
      "tedbir": 6809,
      "kaldı": 6810,
      "denetim": 6811,
      "Sı": 6812,
      "tasarruf": 6813,
      "bunlar": 6814,
      "kesim": 6815,
      "yatırımcı": 6816,
      "mağaza": 6817,
      "gay": 6818,
      "konfor": 6819,
      "iletişime": 6820,
      "televizyon": 6821,
      "genelinde": 6822,
      "cağına": 6823,
      "sertif": 6824,
      "duğunuz": 6825,
      "kanser": 6826,
      "barındır": 6827,
      "kullanabilirsiniz": 6828,
      "giren": 6829,
      "ly": 6830,
      "amik": 6831,
      "doğu": 6832,
      "İngilizce": 6833,
      "Kısa": 6834,
      "kalite": 6835,
      "Dolayı": 6836,
      "Gerçek": 6837,
      "dey": 6838,
      "ağaç": 6839,
      "Po": 6840,
      "esnasında": 6841,
      "tamir": 6842,
      "eceğiz": 6843,
      "kazanç": 6844,
      "zev": 6845,
      "İkinci": 6846,
      "Eski": 6847,
      "kapsa": 6848,
      "ölçüde": 6849,
      "rahatsız": 6850,
      "Kürt": 6851,
      "anta": 6852,
      "oyunu": 6853,
      "donanım": 6854,
      "Mev": 6855,
      "maden": 6856,
      "hukuki": 6857,
      "Yol": 6858,
      "usunu": 6859,
      "durdur": 6860,
      "sizler": 6861,
      "Şehir": 6862,
      "adlandır": 6863,
      "kalma": 6864,
      "politik": 6865,
      "gelişmeler": 6866,
      "brı": 6867,
      "görü": 6868,
      "Küçük": 6869,
      "üstün": 6870,
      "inşaat": 6871,
      "Sitesi": 6872,
      "taleb": 6873,
      "kimlik": 6874,
      "koltuk": 6875,
      "yayınlanan": 6876,
      "rast": 6877,
      "ilmez": 6878,
      "garanti": 6879,
      "Teknik": 6880,
      "EK": 6881,
      "kaydet": 6882,
      "otomobil": 6883,
      "Derneği": 6884,
      "eğini": 6885,
      "roman": 6886,
      "Des": 6887,
      "ukat": 6888,
      "mur": 6889,
      "onlara": 6890,
      "misafir": 6891,
      "dönüşüm": 6892,
      "ulaştır": 6893,
      "rit": 6894,
      "leyebilirsiniz": 6895,
      "orada": 6896,
      "nu": 6897,
      "vekili": 6898,
      "ilin": 6899,
      "öncelikle": 6900,
      "mit": 6901,
      "Gök": 6902,
      "onya": 6903,
      "yapılmış": 6904,
      "kısıt": 6905,
      "başlat": 6906,
      "sivil": 6907,
      "ze": 6908,
      "Sul": 6909,
      "şap": 6910,
      "demi": 6911,
      "nik": 6912,
      "paz": 6913,
      "lanabilir": 6914,
      "Halk": 6915,
      "TT": 6916,
      "Bütün": 6917,
      "endü": 6918,
      "IL": 6919,
      "Mur": 6920,
      "Fark": 6921,
      "anan": 6922,
      "geler": 6923,
      "Bas": 6924,
      "UL": 6925,
      "enflasyon": 6926,
      "hekim": 6927,
      "çu": 6928,
      "gösteriyor": 6929,
      "gördüğ": 6930,
      "çocuklar": 6931,
      "olmadı": 6932,
      "Az": 6933,
      "istiyorum": 6934,
      "kahve": 6935,
      "gündem": 6936,
      "forma": 6937,
      "ciğ": 6938,
      "ülkede": 6939,
      "zir": 6940,
      "İade": 6941,
      "kurtul": 6942,
      "kaçın": 6943,
      "lerimizin": 6944,
      "cami": 6945,
      "sebebi": 6946,
      "kulak": 6947,
      "yumuş": 6948,
      "içindeki": 6949,
      "günümüz": 6950,
      "işin": 6951,
      "herkesin": 6952,
      "yılından": 6953,
      "Le": 6954,
      "bulabilirsiniz": 6955,
      "tarihli": 6956,
      "Tu": 6957,
      "ment": 6958,
      "ferans": 6959,
      "mesinde": 6960,
      "temizlik": 6961,
      "yaklaşım": 6962,
      "2014": 6963,
      "oğl": 6964,
      "muştu": 6965,
      "Kıbrı": 6966,
      "yaşaya": 6967,
      "sorgu": 6968,
      "yetkili": 6969,
      "kok": 6970,
      "filmi": 6971,
      "ind": 6972,
      "transfer": 6973,
      "birleştir": 6974,
      "Avrup": 6975,
      "raman": 6976,
      "çatı": 6977,
      "mesiyle": 6978,
      "ettiğiniz": 6979,
      "saf": 6980,
      "modeli": 6981,
      "alim": 6982,
      "bakımından": 6983,
      "mikro": 6984,
      "market": 6985,
      "Net": 6986,
      "ücreti": 6987,
      "hip": 6988,
      "akade": 6989,
      "uklu": 6990,
      "Med": 6991,
      "boğ": 6992,
      "gah": 6993,
      "makla": 6994,
      "ideal": 6995,
      "evet": 6996,
      "bölgede": 6997,
      "Altın": 6998,
      "sağlığı": 6999,
      "IM": 7000,
      "Fakül": 7001,
      "alıcı": 7002,
      "kayıp": 7003,
      "IS": 7004,
      "makam": 7005,
      "hum": 7006,
      "Sah": 7007,
      "Bi": 7008,
      "tane": 7009,
      "işte": 7010,
      "servisi": 7011,
      "süs": 7012,
      "artesi": 7013,
      "sunmaktadır": 7014,
      "yım": 7015,
      "ordu": 7016,
      "kumaş": 7017,
      "ova": 7018,
      "36": 7019,
      "nakliyat": 7020,
      "zi": 7021,
      "kesi": 7022,
      "yıldız": 7023,
      "işlev": 7024,
      "vas": 7025,
      "undaki": 7026,
      "gerçekleştirilen": 7027,
      "yürür": 7028,
      "gili": 7029,
      "sunulan": 7030,
      "Ge": 7031,
      "genin": 7032,
      "finans": 7033,
      "link": 7034,
      "sanın": 7035,
      "dünyaya": 7036,
      "Yen": 7037,
      "bedel": 7038,
      "ast": 7039,
      "lemeye": 7040,
      "Yayın": 7041,
      "sakin": 7042,
      "köpek": 7043,
      "32": 7044,
      "sohbet": 7045,
      "park": 7046,
      "erin": 7047,
      "olama": 7048,
      "ulusal": 7049,
      "bahçe": 7050,
      "Sig": 7051,
      "bö": 7052,
      "ediğiniz": 7053,
      "virüs": 7054,
      "pratik": 7055,
      "usuna": 7056,
      "Artık": 7057,
      "dra": 7058,
      "güm": 7059,
      "liler": 7060,
      "ırlar": 7061,
      "bileş": 7062,
      "başlaya": 7063,
      "Ağustos": 7064,
      "Gür": 7065,
      "Kuzey": 7066,
      "kullanıla": 7067,
      "katıldı": 7068,
      "landa": 7069,
      "amaçlı": 7070,
      "korku": 7071,
      "larınıza": 7072,
      "oldukları": 7073,
      "lanacak": 7074,
      "sızın": 7075,
      "iyim": 7076,
      "Bizim": 7077,
      "mür": 7078,
      "hücr": 7079,
      "Fil": 7080,
      "artan": 7081,
      "duyar": 7082,
      "direk": 7083,
      "layacak": 7084,
      "üyesi": 7085,
      "Onun": 7086,
      "günümüzde": 7087,
      "İm": 7088,
      "siyah": 7089,
      "kred": 7090,
      "Of": 7091,
      "ceğiz": 7092,
      "alanlarda": 7093,
      "beklent": 7094,
      "vergi": 7095,
      "montaj": 7096,
      "sorunları": 7097,
      "lit": 7098,
      "maye": 7099,
      "Dolayısıyla": 7100,
      "incelen": 7101,
      "Çek": 7102,
      "tedavisi": 7103,
      "iyileştir": 7104,
      "enler": 7105,
      "kapan": 7106,
      "birbirinden": 7107,
      "Diy": 7108,
      "muyor": 7109,
      "makal": 7110,
      "gelmiş": 7111,
      "edilmiştir": 7112,
      "Ex": 7113,
      "kamera": 7114,
      "kanıt": 7115,
      "gelmektedir": 7116,
      "Madde": 7117,
      "kıy": 7118,
      "Bunlar": 7119,
      "vey": 7120,
      "malzeme": 7121,
      "kullanma": 7122,
      "çeş": 7123,
      "bütç": 7124,
      "kork": 7125,
      "int": 7126,
      "sıfır": 7127,
      "pe": 7128,
      "Hayat": 7129,
      "etin": 7130,
      "kaza": 7131,
      "azalt": 7132,
      "sözleşme": 7133,
      "kep": 7134,
      "Huk": 7135,
      "bür": 7136,
      "İçin": 7137,
      "fıkra": 7138,
      "diyet": 7139,
      "olduğunda": 7140,
      "likleri": 7141,
      "ilçesinde": 7142,
      "geldiği": 7143,
      "saygı": 7144,
      "rim": 7145,
      "Gerek": 7146,
      "çalışması": 7147,
      "ilgilen": 7148,
      "ğan": 7149,
      "95": 7150,
      "aittir": 7151,
      "insanları": 7152,
      "ılmıştır": 7153,
      "arik": 7154,
      "197": 7155,
      "Üç": 7156,
      "Gö": 7157,
      "reh": 7158,
      "layıp": 7159,
      "Güvenlik": 7160,
      "üretilen": 7161,
      "Dav": 7162,
      "Fransa": 7163,
      "civar": 7164,
      "kriz": 7165,
      "Mic": 7166,
      "hac": 7167,
      "söylü": 7168,
      "siteleri": 7169,
      "milli": 7170,
      "suret": 7171,
      "urta": 7172,
      "TR": 7173,
      "çocukların": 7174,
      "Ch": 7175,
      "sorunun": 7176,
      "taşıyan": 7177,
      "yaşında": 7178,
      "ksiyon": 7179,
      "adresi": 7180,
      "Ekon": 7181,
      "ord": 7182,
      "kanın": 7183,
      "hediye": 7184,
      "kodu": 7185,
      "alınır": 7186,
      "deri": 7187,
      "çevre": 7188,
      "yapımı": 7189,
      "emen": 7190,
      "Sanayi": 7191,
      "umuzu": 7192,
      "okun": 7193,
      "açıdan": 7194,
      "Hatta": 7195,
      "To": 7196,
      "vermeye": 7197,
      "açıkladı": 7198,
      "adını": 7199,
      "Cen": 7200,
      "verimli": 7201,
      "CE": 7202,
      "balaj": 7203,
      "vası": 7204,
      "metal": 7205,
      "karşılık": 7206,
      "Ekonom": 7207,
      "aralık": 7208,
      "hastalığı": 7209,
      "Samsun": 7210,
      "hayır": 7211,
      "uyumlu": 7212,
      "kaynağı": 7213,
      "TO": 7214,
      "Cez": 7215,
      "düşt": 7216,
      "yetenek": 7217,
      "metin": 7218,
      "aşk": 7219,
      "edildiği": 7220,
      "türün": 7221,
      "yatak": 7222,
      "seçenekleri": 7223,
      "işlemler": 7224,
      "üretimi": 7225,
      "olanlar": 7226,
      "yerli": 7227,
      "ente": 7228,
      "melisiniz": 7229,
      "33": 7230,
      "bölge": 7231,
      "ulmuş": 7232,
      "ahh": 7233,
      "karbon": 7234,
      "bünyesinde": 7235,
      "çiler": 7236,
      "hali": 7237,
      "düşüş": 7238,
      "belirterek": 7239,
      "Rü": 7240,
      "iken": 7241,
      "belirlenen": 7242,
      "lamanın": 7243,
      "talık": 7244,
      "stok": 7245,
      "sorunlar": 7246,
      "şiş": 7247,
      "teşvik": 7248,
      "ry": 7249,
      "lazım": 7250,
      "sıvı": 7251,
      "orijinal": 7252,
      "tasarımı": 7253,
      "Sır": 7254,
      "isterseniz": 7255,
      "yıka": 7256,
      "ümin": 7257,
      "gelin": 7258,
      "Dünyanın": 7259,
      "bilinç": 7260,
      "arat": 7261,
      "Düş": 7262,
      "hid": 7263,
      "cins": 7264,
      "usul": 7265,
      "vermiş": 7266,
      "biyat": 7267,
      "nefes": 7268,
      "sahib": 7269,
      "Men": 7270,
      "rahim": 7271,
      "şef": 7272,
      "müdür": 7273,
      "restor": 7274,
      "mediği": 7275,
      "Lig": 7276,
      "kusur": 7277,
      "erv": 7278,
      "kaçır": 7279,
      "Win": 7280,
      "kağıt": 7281,
      "Müs": 7282,
      "vade": 7283,
      "alanları": 7284,
      "Dil": 7285,
      "ederim": 7286,
      "sağlayacak": 7287,
      "tad": 7288,
      "ulma": 7289,
      "ekipman": 7290,
      "maddi": 7291,
      "imizden": 7292,
      "atif": 7293,
      "dırma": 7294,
      "Mon": 7295,
      "eyecek": 7296,
      "Şah": 7297,
      "sebeple": 7298,
      "yakından": 7299,
      "gizli": 7300,
      "verecek": 7301,
      "else": 7302,
      "memnuniyet": 7303,
      "55": 7304,
      "2013": 7305,
      "keşf": 7306,
      "bölümü": 7307,
      "potansiyel": 7308,
      "İngiltere": 7309,
      "Üret": 7310,
      "işgal": 7311,
      "göstermektedir": 7312,
      "dolayısıyla": 7313,
      "Bankası": 7314,
      "biçim": 7315,
      "başlama": 7316,
      "MS": 7317,
      "tuğ": 7318,
      "bulan": 7319,
      "faydalan": 7320,
      "Sonuç": 7321,
      "verildi": 7322,
      "Fransız": 7323,
      "34": 7324,
      "bilimsel": 7325,
      "Zira": 7326,
      "kullanan": 7327,
      "düşünüyor": 7328,
      "denet": 7329,
      "rekabet": 7330,
      "eğlenc": 7331,
      "avir": 7332,
      "iklim": 7333,
      "kabil": 7334,
      "stil": 7335,
      "metr": 7336,
      "pir": 7337,
      "2023": 7338,
      "tüketic": 7339,
      "gerektiği": 7340,
      "düm": 7341,
      "meyin": 7342,
      "pişir": 7343,
      "tansiyon": 7344,
      "maruz": 7345,
      "sınırlı": 7346,
      "Uygulama": 7347,
      "teslimat": 7348,
      "htt": 7349,
      "maktır": 7350,
      "ort": 7351,
      "oranında": 7352,
      "zek": 7353,
      "verim": 7354,
      "sayıl": 7355,
      "olabilirsiniz": 7356,
      "Araç": 7357,
      "süreçte": 7358,
      "sinema": 7359,
      "Dik": 7360,
      "şüph": 7361,
      "sürecinde": 7362,
      "müdahale": 7363,
      "uydu": 7364,
      "kalıcı": 7365,
      "hayatı": 7366,
      "otobüs": 7367,
      "mücadel": 7368,
      "buradan": 7369,
      "kimyasal": 7370,
      "Taş": 7371,
      "damar": 7372,
      "toz": 7373,
      "konak": 7374,
      "batı": 7375,
      "mobilya": 7376,
      "çıkarı": 7377,
      "VE": 7378,
      "kültürel": 7379,
      "hut": 7380,
      "def": 7381,
      "esidir": 7382,
      "Aslında": 7383,
      "takv": 7384,
      "liyoruz": 7385,
      "gelişmiş": 7386,
      "kullanılmaktadır": 7387,
      "aldığınız": 7388,
      "Şeh": 7389,
      "şır": 7390,
      "ilişki": 7391,
      "diyerek": 7392,
      "tığınız": 7393,
      "dakik": 7394,
      "Uzman": 7395,
      "kimse": 7396,
      "kaz": 7397,
      "demektir": 7398,
      "Günümüzde": 7399,
      "Dir": 7400,
      "teli": 7401,
      "pres": 7402,
      "ündeki": 7403,
      "Kil": 7404,
      "aşağıda": 7405,
      "emiş": 7406,
      "uluyor": 7407,
      "Apple": 7408,
      "nesil": 7409,
      "fonksiyon": 7410,
      "acağı": 7411,
      "grafik": 7412,
      "arken": 7413,
      "Başvur": 7414,
      "üyüş": 7415,
      "süren": 7416,
      "tey": 7417,
      "bbi": 7418,
      "düşman": 7419,
      "unuzun": 7420,
      "Yurt": 7421,
      "urken": 7422,
      "birinin": 7423,
      "niteli": 7424,
      "Bölg": 7425,
      "renkli": 7426,
      "içeriği": 7427,
      "ümüzdeki": 7428,
      "fatura": 7429,
      "üğü": 7430,
      "leyebilir": 7431,
      "Yardımcısı": 7432,
      "pil": 7433,
      "Çalışma": 7434,
      "Mut": 7435,
      "müştür": 7436,
      "mühendis": 7437,
      "yedek": 7438,
      "meyecek": 7439,
      "Sultan": 7440,
      "ılmaktadır": 7441,
      "CO": 7442,
      "Tah": 7443,
      "Hiç": 7444,
      "ülmesi": 7445,
      "mimar": 7446,
      "muhtemel": 7447,
      "Mı": 7448,
      "ıldığında": 7449,
      "Benim": 7450,
      "yetiş": 7451,
      "layabilirsiniz": 7452,
      "Firmamız": 7453,
      "cret": 7454,
      "İb": 7455,
      "Phone": 7456,
      "vadeli": 7457,
      "bilgiye": 7458,
      "Dok": 7459,
      "böylece": 7460,
      "kale": 7461,
      "ilerden": 7462,
      "bekliyor": 7463,
      "irler": 7464,
      "Fi": 7465,
      "sahn": 7466,
      "Yatırım": 7467,
      "olacağını": 7468,
      "tuz": 7469,
      "kasa": 7470,
      "dokun": 7471,
      "mahkem": 7472,
      "geleneksel": 7473,
      "yerden": 7474,
      "yenilen": 7475,
      "leniyor": 7476,
      "kup": 7477,
      "hizmetler": 7478,
      "jen": 7479,
      "medik": 7480,
      "Güzel": 7481,
      "karma": 7482,
      "ülkemizde": 7483,
      "bağır": 7484,
      "utan": 7485,
      "kendilerine": 7486,
      "Car": 7487,
      "stres": 7488,
      "uyku": 7489,
      "lukla": 7490,
      "laşık": 7491,
      "birini": 7492,
      "yakıt": 7493,
      "sonuçlar": 7494,
      "süreli": 7495,
      "atın": 7496,
      "tılan": 7497,
      "Değiş": 7498,
      "Mek": 7499,
      "48": 7500,
      "laştırma": 7501,
      "işçi": 7502,
      "Hukuk": 7503,
      "Bin": 7504,
      "kapsamlı": 7505,
      "dukları": 7506,
      "düzeyde": 7507,
      "Yapılan": 7508,
      "dini": 7509,
      "Bilim": 7510,
      "düzelt": 7511,
      "Jap": 7512,
      "birleş": 7513,
      "denin": 7514,
      "Bayram": 7515,
      "meyve": 7516,
      "yukarıda": 7517,
      "Hep": 7518,
      "Andro": 7519,
      "Köy": 7520,
      "ismi": 7521,
      "çevrim": 7522,
      "oyunc": 7523,
      "kenar": 7524,
      "ettiğimiz": 7525,
      "çalışır": 7526,
      "trafik": 7527,
      "sağlamaktadır": 7528,
      "karşıya": 7529,
      "ılabilir": 7530,
      "istedik": 7531,
      "Siya": 7532,
      "yükümlül": 7533,
      "Tat": 7534,
      "Am": 7535,
      "esiz": 7536,
      "miktarda": 7537,
      "Müsl": 7538,
      "sonuçları": 7539,
      "Savaş": 7540,
      "yiyecek": 7541,
      "başlıyor": 7542,
      "menize": 7543,
      "İsra": 7544,
      "mesel": 7545,
      "sep": 7546,
      "lerimize": 7547,
      "Neden": 7548,
      "akış": 7549,
      "Evet": 7550,
      "Öl": 7551,
      "Birçok": 7552,
      "yapıyoruz": 7553,
      "itibariyle": 7554,
      "AKP": 7555,
      "eğe": 7556,
      "De": 7557,
      "ğe": 7558,
      "dikkatli": 7559,
      "99": 7560,
      "300": 7561,
      "Güneş": 7562,
      "hurdası": 7563,
      "ong": 7564,
      "ifadelerini": 7565,
      "seb": 7566,
      "Kredi": 7567,
      "beslenme": 7568,
      "gecik": 7569,
      "kiralama": 7570,
      "Ermen": 7571,
      "eral": 7572,
      "yetk": 7573,
      "eklem": 7574,
      "İH": 7575,
      "alabilir": 7576,
      "beyan": 7577,
      "öncelik": 7578,
      "kariyer": 7579,
      "2012": 7580,
      "bahar": 7581,
      "lav": 7582,
      "vize": 7583,
      "getirdi": 7584,
      "kilit": 7585,
      "buraya": 7586,
      "yaşındaki": 7587,
      "Sayın": 7588,
      "itör": 7589,
      "uldu": 7590,
      "Ödül": 7591,
      "liy": 7592,
      "Kanunu": 7593,
      "New": 7594,
      "rük": 7595,
      "gereği": 7596,
      "işletmeler": 7597,
      "yaşadığı": 7598,
      "Ücret": 7599,
      "tamiri": 7600,
      "Fer": 7601,
      "Lo": 7602,
      "köş": 7603,
      "yel": 7604,
      "odaklı": 7605,
      "lüğe": 7606,
      "elerdir": 7607,
      "işleme": 7608,
      "kendilerini": 7609,
      "sanayi": 7610,
      "duruş": 7611,
      "bireysel": 7612,
      "boyu": 7613,
      "Trab": 7614,
      "Tarım": 7615,
      "sonuna": 7616,
      "Android": 7617,
      "Nak": 7618,
      "tören": 7619,
      "acil": 7620,
      "kopya": 7621,
      "Gar": 7622,
      "tartışma": 7623,
      "edici": 7624,
      "Un": 7625,
      "Bundan": 7626,
      "İşlem": 7627,
      "ron": 7628,
      "orman": 7629,
      "ambalaj": 7630,
      "Ra": 7631,
      "egzer": 7632,
      "Kılı": 7633,
      "verilmesi": 7634,
      "tavsiy": 7635,
      "güvenliği": 7636,
      "enfeksiyon": 7637,
      "Hangi": 7638,
      "we": 7639,
      "bilgilerin": 7640,
      "nan": 7641,
      "çekici": 7642,
      "alımı": 7643,
      "ğınızı": 7644,
      "erji": 7645,
      "ulaşmak": 7646,
      "diya": 7647,
      "tanış": 7648,
      "kabı": 7649,
      "anlama": 7650,
      "uygulanan": 7651,
      "faydalı": 7652,
      "ilmelidir": 7653,
      "ity": 7654,
      "işlen": 7655,
      "ilerle": 7656,
      "66": 7657,
      "gam": 7658,
      "tedarik": 7659,
      "zorluk": 7660,
      "başlangıç": 7661,
      "Yukarı": 7662,
      "Pa": 7663,
      "liyet": 7664,
      "sunucu": 7665,
      "Bat": 7666,
      "PS": 7667,
      "stagram": 7668,
      "Fes": 7669,
      "Arap": 7670,
      "ekibi": 7671,
      "ciğer": 7672,
      "Sipariş": 7673,
      "dat": 7674,
      "memur": 7675,
      "tecrüb": 7676,
      "mara": 7677,
      "mahal": 7678,
      "günün": 7679,
      "Cumhuriyeti": 7680,
      "yükselt": 7681,
      "ilmesini": 7682,
      "FT": 7683,
      "kadınların": 7684,
      "tabak": 7685,
      "panel": 7686,
      "ımın": 7687,
      "şartları": 7688,
      "kullanılarak": 7689,
      "iyel": 7690,
      "katılan": 7691,
      "Fin": 7692,
      "ID": 7693,
      "oksi": 7694,
      "aşkın": 7695,
      "Farklı": 7696,
      "İlçe": 7697,
      "Boz": 7698,
      "melerini": 7699,
      "parti": 7700,
      "işletme": 7701,
      "lendirme": 7702,
      "You": 7703,
      "önde": 7704,
      "Sin": 7705,
      "rahatlıkla": 7706,
      "Aşağı": 7707,
      "memesi": 7708,
      "kalk": 7709,
      "uygulamaları": 7710,
      "söyleyen": 7711,
      "by": 7712,
      "ilave": 7713,
      "lerken": 7714,
      "sesuar": 7715,
      "unuza": 7716,
      "dayalı": 7717,
      "Hız": 7718,
      "Pet": 7719,
      "seçeneği": 7720,
      "alması": 7721,
      "İstanbulda": 7722,
      "emesi": 7723,
      "Sarı": 7724,
      "con": 7725,
      "rin": 7726,
      "mutfak": 7727,
      "ılıyor": 7728,
      "Amerikan": 7729,
      "kıyafet": 7730,
      "omuz": 7731,
      "şun": 7732,
      "akl": 7733,
      "fatur": 7734,
      "Nedir": 7735,
      "kadınlar": 7736,
      "Kıbrıs": 7737,
      "pey": 7738,
      "bizlere": 7739,
      "alınarak": 7740,
      "Karşı": 7741,
      "üniversite": 7742,
      "değişken": 7743,
      "tılması": 7744,
      "zemin": 7745,
      "Mobil": 7746,
      "tih": 7747,
      "38": 7748,
      "hır": 7749,
      "mevsim": 7750,
      "evden": 7751,
      "IK": 7752,
      "İşlet": 7753,
      "rika": 7754,
      "th": 7755,
      "lıkta": 7756,
      "barış": 7757,
      "sanal": 7758,
      "Mahkem": 7759,
      "bulmak": 7760,
      "İŞ": 7761,
      "ock": 7762,
      "ilmesine": 7763,
      "imen": 7764,
      "beli": 7765,
      "Yet": 7766,
      "seni": 7767,
      "kablo": 7768,
      "LER": 7769,
      "olog": 7770,
      "klasik": 7771,
      "atık": 7772,
      "evren": 7773,
      "cılığı": 7774,
      "GB": 7775,
      "Con": 7776,
      "Arka": 7777,
      "maddesi": 7778,
      "pencer": 7779,
      "dows": 7780,
      "yaptığımız": 7781,
      "tarihleri": 7782,
      "Nur": 7783,
      "lerindeki": 7784,
      "mahall": 7785,
      "söylüyor": 7786,
      "Yapı": 7787,
      "iyiz": 7788,
      "uçuş": 7789,
      "doku": 7790,
      "emeye": 7791,
      "kıymet": 7792,
      "alar": 7793,
      "tıklayın": 7794,
      "Şam": 7795,
      "fan": 7796,
      "Dep": 7797,
      "üminyum": 7798,
      "şarj": 7799,
      "açılış": 7800,
      "şiir": 7801,
      "kaydı": 7802,
      "atma": 7803,
      "şet": 7804,
      "ordin": 7805,
      "asıyla": 7806,
      "müdahal": 7807,
      "içerir": 7808,
      "sitesinde": 7809,
      "rom": 7810,
      "Beyaz": 7811,
      "istediği": 7812,
      "harita": 7813,
      "grubu": 7814,
      "birbirine": 7815,
      "blog": 7816,
      "iPhone": 7817,
      "Kart": 7818,
      "sunuyoruz": 7819,
      "günden": 7820,
      "sıklıkla": 7821,
      "altyapı": 7822,
      "BB": 7823,
      "muhafaz": 7824,
      "2011": 7825,
      "filtr": 7826,
      "getirmek": 7827,
      "öncesinde": 7828,
      "heyecan": 7829,
      "Öncelikle": 7830,
      "coğraf": 7831,
      "zamanı": 7832,
      "görür": 7833,
      "firmalar": 7834,
      "oluşturmak": 7835,
      "Azer": 7836,
      "dönemi": 7837,
      "mül": 7838,
      "derecede": 7839,
      "37": 7840,
      "ılmasına": 7841,
      "parlak": 7842,
      "tarihinden": 7843,
      "tokol": 7844,
      "numarası": 7845,
      "bölgedeki": 7846,
      "fabrika": 7847,
      "gerekse": 7848,
      "tüketim": 7849,
      "yolcu": 7850,
      "kullanabil": 7851,
      "los": 7852,
      "final": 7853,
      "ülkeler": 7854,
      "lendi": 7855,
      "tazmin": 7856,
      "Festival": 7857,
      "verileri": 7858,
      "masraf": 7859,
      "güne": 7860,
      "Ajan": 7861,
      "yumurta": 7862,
      "görevi": 7863,
      "salon": 7864,
      "tale": 7865,
      "korumak": 7866,
      "Com": 7867,
      "yayıl": 7868,
      "uluğ": 7869,
      "leyecek": 7870,
      "makinesi": 7871,
      "masında": 7872,
      "Pr": 7873,
      "firmaları": 7874,
      "vs": 7875,
      "kadem": 7876,
      "teşem": 7877,
      "enizi": 7878,
      "Murat": 7879,
      "bilgisi": 7880,
      "lerdeki": 7881,
      "Din": 7882,
      "Öte": 7883,
      "2000": 7884,
      "zamanlı": 7885,
      "rüya": 7886,
      "yıllardır": 7887,
      "birer": 7888,
      "ağız": 7889,
      "yaşlı": 7890,
      "Meclis": 7891,
      "Temiz": 7892,
      "muay": 7893,
      "Online": 7894,
      "ilerinden": 7895,
      "bugüne": 7896,
      "ınar": 7897,
      "düşünül": 7898,
      "değin": 7899,
      "Kendi": 7900,
      "lerinize": 7901,
      "aklı": 7902,
      "turizm": 7903,
      "kişilere": 7904,
      "oluşur": 7905,
      "les": 7906,
      "halka": 7907,
      "sana": 7908,
      "tein": 7909,
      "komp": 7910,
      "muhal": 7911,
      "Birleşik": 7912,
      "oğu": 7913,
      "sağlama": 7914,
      "petrol": 7915,
      "elbette": 7916,
      "filmleri": 7917,
      "Cumhurbaşkan": 7918,
      "parator": 7919,
      "piyon": 7920,
      "gereksin": 7921,
      "karşımıza": 7922,
      "2010": 7923,
      "Feder": 7924,
      "vererek": 7925,
      "soruştur": 7926,
      "ilecektir": 7927,
      "MAD": 7928,
      "sürece": 7929,
      "Akdeniz": 7930,
      "estetik": 7931,
      "Çar": 7932,
      "orum": 7933,
      "mide": 7934,
      "ceva": 7935,
      "masından": 7936,
      "liliğ": 7937,
      "havuz": 7938,
      "gari": 7939,
      "ihlal": 7940,
      "motiv": 7941,
      "stır": 7942,
      "Cem": 7943,
      "geçtiğimiz": 7944,
      "öğrencilerin": 7945,
      "Baba": 7946,
      "kaplama": 7947,
      "geçici": 7948,
      "açılan": 7949,
      "Fener": 7950,
      "46": 7951,
      "İT": 7952,
      "çekti": 7953,
      "Kitap": 7954,
      "geril": 7955,
      "tesisat": 7956,
      "ding": 7957,
      "utma": 7958,
      "yangın": 7959,
      "Cev": 7960,
      "ımda": 7961,
      "lemesi": 7962,
      "pozit": 7963,
      "Hük": 7964,
      "Tara": 7965,
      "geleceğ": 7966,
      "Ner": 7967,
      "dından": 7968,
      "zincir": 7969,
      "antep": 7970,
      "rakip": 7971,
      "alındı": 7972,
      "Doğru": 7973,
      "che": 7974,
      "haval": 7975,
      "udi": 7976,
      "sisteminin": 7977,
      "tepki": 7978,
      "iyordu": 7979,
      "satışa": 7980,
      "Havalim": 7981,
      "plastik": 7982,
      "endüstr": 7983,
      "düğünü": 7984,
      "des": 7985,
      "katılımcı": 7986,
      "duruma": 7987,
      "yapmanız": 7988,
      "book": 7989,
      "anet": 7990,
      "Teknoloji": 7991,
      "rezerv": 7992,
      "lig": 7993,
      "alışkan": 7994,
      "Hazır": 7995,
      "mülk": 7996,
      "LAR": 7997,
      "yıla": 7998,
      "ud": 7999,
      "yenil": 8000,
      "stit": 8001,
      "Windows": 8002,
      "Ün": 8003,
      "olmaması": 8004,
      "yapıldığı": 8005,
      "boru": 8006,
      "istihdam": 8007,
      "sergil": 8008,
      "endek": 8009,
      "dolaş": 8010,
      "insanı": 8011,
      "İlet": 8012,
      "emektedir": 8013,
      "Ulusal": 8014,
      "çalışmak": 8015,
      "sus": 8016,
      "Mey": 8017,
      "kutu": 8018,
      "verme": 8019,
      "yürüyüş": 8020,
      "üyeleri": 8021,
      "belediye": 8022,
      "Kargo": 8023,
      "krem": 8024,
      "edilerek": 8025,
      "Pak": 8026,
      "sansör": 8027,
      "Boğ": 8028,
      "şirketin": 8029,
      "tutuk": 8030,
      "eceğimiz": 8031,
      "Kılıç": 8032,
      "aksiyon": 8033,
      "lımı": 8034,
      "Beşik": 8035,
      "39": 8036,
      "likler": 8037,
      "kamp": 8038,
      "kullandığı": 8039,
      "açıkça": 8040,
      "süredir": 8041,
      "2008": 8042,
      "etken": 8043,
      "yip": 8044,
      "husus": 8045,
      "şaşır": 8046,
      "olabil": 8047,
      "madığı": 8048,
      "sinir": 8049,
      "değerlendirme": 8050,
      "seyir": 8051,
      "Hakk": 8052,
      "eyebilirsiniz": 8053,
      "ihtiyacınız": 8054,
      "kriter": 8055,
      "kaybı": 8056,
      "ism": 8057,
      "kurs": 8058,
      "Azerbay": 8059,
      "GE": 8060,
      "blok": 8061,
      "çözümler": 8062,
      "sürüm": 8063,
      "endiş": 8064,
      "Trabzon": 8065,
      "kapsamda": 8066,
      "ünüyor": 8067,
      "AV": 8068,
      "olabilecek": 8069,
      "kavuş": 8070,
      "komisyon": 8071,
      "mekaniz": 8072,
      "ked": 8073,
      "aksesuar": 8074,
      "ÜN": 8075,
      "850": 8076,
      "kitl": 8077,
      "kuzey": 8078,
      "hayatta": 8079,
      "Dijital": 8080,
      "zeytin": 8081,
      "Pek": 8082,
      "ALICI": 8083,
      "belik": 8084,
      "beton": 8085,
      "savunma": 8086,
      "ebilmek": 8087,
      "maaş": 8088,
      "Fır": 8089,
      "çalışmaya": 8090,
      "dök": 8091,
      "hazırlık": 8092,
      "ederiz": 8093,
      "yerler": 8094,
      "Müşter": 8095,
      "Ci": 8096,
      "oranda": 8097,
      "yapmaktadır": 8098,
      "day": 8099,
      "devrim": 8100,
      "arız": 8101,
      "idari": 8102,
      "projesi": 8103,
      "pren": 8104,
      "serg": 8105,
      "eleman": 8106,
      "adalet": 8107,
      "pik": 8108,
      "avukat": 8109,
      "Adana": 8110,
      "Çelik": 8111,
      "Aile": 8112,
      "yeme": 8113,
      "nakliye": 8114,
      "ısıtma": 8115,
      "mor": 8116,
      "sermaye": 8117,
      "görüyor": 8118,
      "okuy": 8119,
      "kitabı": 8120,
      "Irak": 8121,
      "biliyoruz": 8122,
      "dökül": 8123,
      "lastik": 8124,
      "anlaşma": 8125,
      "kolaylıkla": 8126,
      "ılarak": 8127,
      "tanıtım": 8128,
      "görülür": 8129,
      "MP": 8130,
      "Dön": 8131,
      "konularda": 8132,
      "izlen": 8133,
      "sunduğu": 8134,
      "hepsi": 8135,
      "noktası": 8136,
      "kullanıyor": 8137,
      "larımızda": 8138,
      "oluşturan": 8139,
      "Başka": 8140,
      "vizyon": 8141,
      "aktivit": 8142,
      "196": 8143,
      "Gaziantep": 8144,
      "lor": 8145,
      "Göl": 8146,
      "ilçe": 8147,
      "rej": 8148,
      "vaka": 8149,
      "taahh": 8150,
      "Tıp": 8151,
      "GS": 8152,
      "doğa": 8153,
      "fiyatlar": 8154,
      "başlı": 8155,
      "Fatih": 8156,
      "harf": 8157,
      "sorunsuz": 8158,
      "Borsa": 8159,
      "büyüme": 8160,
      "Başkanlığı": 8161,
      "nüfus": 8162,
      "onavir": 8163,
      "Don": 8164,
      "keyifli": 8165,
      "kullanıcıların": 8166,
      "katkıda": 8167,
      "Komisyon": 8168,
      "Op": 8169,
      "IP": 8170,
      "ceğiniz": 8171,
      "belediy": 8172,
      "Baz": 8173,
      "şeyin": 8174,
      "Mus": 8175,
      "yör": 8176,
      "felse": 8177,
      "aylarında": 8178,
      "kalitesi": 8179,
      "ufak": 8180,
      "mater": 8181,
      "laf": 8182,
      "okuma": 8183,
      "sürdürülebilir": 8184,
      "Rap": 8185,
      "girdi": 8186,
      "AC": 8187,
      "olmayı": 8188,
      "Balık": 8189,
      "Düzen": 8190,
      "larıdır": 8191,
      "ob": 8192,
      "Güm": 8193,
      "kalır": 8194,
      "Mem": 8195,
      "Sitemiz": 8196,
      "tılmış": 8197,
      "yumuşak": 8198,
      "döviz": 8199,
      "zevk": 8200,
      "şöyle": 8201,
      "150": 8202,
      "tıkan": 8203,
      "etmeniz": 8204,
      "tiğimiz": 8205,
      "pi": 8206,
      "Sek": 8207,
      "onarım": 8208,
      "400": 8209,
      "hatırla": 8210,
      "Bek": 8211,
      "Ardından": 8212,
      "leyip": 8213,
      "genelde": 8214,
      "attı": 8215,
      "sis": 8216,
      "Organ": 8217,
      "tutu": 8218,
      "belgesi": 8219,
      "Kira": 8220,
      "akar": 8221,
      "üzgar": 8222,
      "adeta": 8223,
      "sez": 8224,
      "nef": 8225,
      "iyice": 8226,
      "unca": 8227,
      "Öğretmen": 8228,
      "tıkları": 8229,
      "şak": 8230,
      "acağız": 8231,
      "kıyas": 8232,
      "mesinden": 8233,
      "Konya": 8234,
      "hisse": 8235,
      "işbirliği": 8236,
      "elinde": 8237,
      "simum": 8238,
      "umut": 8239,
      "koz": 8240,
      "Paşa": 8241,
      "doz": 8242,
      "esnek": 8243,
      "yerlerde": 8244,
      "ekibimiz": 8245,
      "müsa": 8246,
      "Yeşil": 8247,
      "numaralı": 8248,
      "okur": 8249,
      "yapılabilir": 8250,
      "Naz": 8251,
      "verici": 8252,
      "teknolojik": 8253,
      "Rece": 8254,
      "Yılmaz": 8255,
      "TS": 8256,
      "görünüyor": 8257,
      "olacağı": 8258,
      "Asya": 8259,
      "emli": 8260,
      "vekil": 8261,
      "rehber": 8262,
      "Doğal": 8263,
      "bildirim": 8264,
      "içeri": 8265,
      "tası": 8266,
      "düşünce": 8267,
      "bakter": 8268,
      "ıda": 8269,
      "06": 8270,
      "Pat": 8271,
      "Üstelik": 8272,
      "amac": 8273,
      "yaptıkları": 8274,
      "Park": 8275,
      "dışına": 8276,
      "Ok": 8277,
      "Pen": 8278,
      "plana": 8279,
      "farklılık": 8280,
      "kaynaklı": 8281,
      "zamanında": 8282,
      "hazırla": 8283,
      "ılmasını": 8284,
      "lacaktır": 8285,
      "bitki": 8286,
      "Kir": 8287,
      "temas": 8288,
      "Kamu": 8289,
      "öğrenmek": 8290,
      "etkile": 8291,
      "izlemek": 8292,
      "Plan": 8293,
      "İdar": 8294,
      "Mahallesi": 8295,
      "ansı": 8296,
      "düşünüyorum": 8297,
      "haba": 8298,
      "insanlara": 8299,
      "senar": 8300,
      "çekir": 8301,
      "deng": 8302,
      "bağlam": 8303,
      "Saç": 8304,
      "uğraş": 8305,
      "MADDE": 8306,
      "Suriye": 8307,
      "hediy": 8308,
      "larken": 8309,
      "ekipleri": 8310,
      "Ed": 8311,
      "sizleri": 8312,
      "witter": 8313,
      "mün": 8314,
      "bilgilere": 8315,
      "ğinin": 8316,
      "İsrail": 8317,
      "makine": 8318,
      "Erkek": 8319,
      "yarışma": 8320,
      "bölümünde": 8321,
      "lambası": 8322,
      "çocuğun": 8323,
      "Recep": 8324,
      "Müşteri": 8325,
      "Tİ": 8326,
      "yönde": 8327,
      "Bunların": 8328,
      "ves": 8329,
      "birine": 8330,
      "Müdürlüğ": 8331,
      "diyen": 8332,
      "Müslüman": 8333,
      "Piyasa": 8334,
      "beyin": 8335,
      "iyo": 8336,
      "Hasan": 8337,
      "iklet": 8338,
      "Ürünler": 8339,
      "Ni": 8340,
      "Kaynak": 8341,
      "deneyimi": 8342,
      "47": 8343,
      "taksit": 8344,
      "lerim": 8345,
      "üstüne": 8346,
      "yas": 8347,
      "gerekç": 8348,
      "kims": 8349,
      "raz": 8350,
      "gündeme": 8351,
      "arya": 8352,
      "kendinizi": 8353,
      "uyarınca": 8354,
      "kimi": 8355,
      "urum": 8356,
      "yalan": 8357,
      "kullanıcılar": 8358,
      "Erz": 8359,
      "Tun": 8360,
      "sos": 8361,
      "verg": 8362,
      "mod": 8363,
      "kıyı": 8364,
      "balı": 8365,
      "netic": 8366,
      "keyf": 8367,
      "bulunması": 8368,
      "bakımı": 8369,
      "Bilgisayar": 8370,
      "ısın": 8371,
      "bire": 8372,
      "metrek": 8373,
      "Hüs": 8374,
      "buluştur": 8375,
      "eşi": 8376,
      "satışı": 8377,
      "Kü": 8378,
      "ende": 8379,
      "malzemeleri": 8380,
      "yolculuk": 8381,
      "önemi": 8382,
      "Kral": 8383,
      "itiraz": 8384,
      "taşımacılık": 8385,
      "Belir": 8386,
      "seçimi": 8387,
      "rahi": 8388,
      "kere": 8389,
      "esef": 8390,
      "çizg": 8391,
      "ihtimal": 8392,
      "gerçekleşen": 8393,
      "gurur": 8394,
      "yarım": 8395,
      "eksiksiz": 8396,
      "Hes": 8397,
      "tıbbi": 8398,
      "muhteşem": 8399,
      "Günü": 8400,
      "terk": 8401,
      "iyorlar": 8402,
      "eğlenceli": 8403,
      "tipi": 8404,
      "Aç": 8405,
      "Rek": 8406,
      "çevrimiçi": 8407,
      "ikat": 8408,
      "üstünde": 8409,
      "farkı": 8410,
      "alanına": 8411,
      "elendir": 8412,
      "alb": 8413,
      "Muh": 8414,
      "çalışmalarını": 8415,
      "Motor": 8416,
      "arasından": 8417,
      "yönetmen": 8418,
      "aksine": 8419,
      "melik": 8420,
      "imzalan": 8421,
      "amaşır": 8422,
      "Bet": 8423,
      "hn": 8424,
      "İtal": 8425,
      "etmeyi": 8426,
      "söylemek": 8427,
      "alanlar": 8428,
      "alana": 8429,
      "civarında": 8430,
      "Tasarım": 8431,
      "ükle": 8432,
      "Mas": 8433,
      "Vol": 8434,
      "amaya": 8435,
      "tamamı": 8436,
      "bank": 8437,
      "elle": 8438,
      "mağdur": 8439,
      "yedi": 8440,
      "tabii": 8441,
      "Sına": 8442,
      "izleme": 8443,
      "yiz": 8444,
      "modül": 8445,
      "kılı": 8446,
      "arıyla": 8447,
      "projeler": 8448,
      "alırken": 8449,
      "iyan": 8450,
      "SEO": 8451,
      "ai": 8452,
      "Ru": 8453,
      "gök": 8454,
      "yolda": 8455,
      "nelerdir": 8456,
      "rahatsızlık": 8457,
      "amet": 8458,
      "temizliği": 8459,
      "bilgilendirme": 8460,
      "mutluluk": 8461,
      "Elektrik": 8462,
      "teor": 8463,
      "haberleri": 8464,
      "erk": 8465,
      "Yok": 8466,
      "kemik": 8467,
      "ıf": 8468,
      "miktarı": 8469,
      "manz": 8470,
      "ullah": 8471,
      "incisi": 8472,
      "dun": 8473,
      "Por": 8474,
      "araçları": 8475,
      "kelime": 8476,
      "hakkını": 8477,
      "2009": 8478,
      "zat": 8479,
      "sağlanması": 8480,
      "Partisi": 8481,
      "işle": 8482,
      "dalga": 8483,
      "örneğin": 8484,
      "veç": 8485,
      "FA": 8486,
      "98": 8487,
      "Toplum": 8488,
      "Fakültesi": 8489,
      "istiyoruz": 8490,
      "çağır": 8491,
      "deprem": 8492,
      "Ajansı": 8493,
      "ayla": 8494,
      "konser": 8495,
      "çıkma": 8496,
      "uygulanır": 8497,
      "sün": 8498,
      "Kes": 8499,
      "saatleri": 8500,
      "profil": 8501,
      "Mersin": 8502,
      "Enerji": 8503,
      "oluşum": 8504,
      "hoca": 8505,
      "iliğini": 8506,
      "kadının": 8507,
      "konuk": 8508,
      "ilginç": 8509,
      "Yağ": 8510,
      "çekim": 8511,
      "Gön": 8512,
      "Turizm": 8513,
      "gelmesi": 8514,
      "gerçekleşti": 8515,
      "graf": 8516,
      "şekli": 8517,
      "nö": 8518,
      "oyunun": 8519,
      "bl": 8520,
      "çıkara": 8521,
      "tematik": 8522,
      "belge": 8523,
      "kalem": 8524,
      "klima": 8525,
      "Ses": 8526,
      "Ef": 8527,
      "rip": 8528,
      "kalmış": 8529,
      "Tük": 8530,
      "gösterdi": 8531,
      "alakalı": 8532,
      "iyileş": 8533,
      "uzan": 8534,
      "uygulamalar": 8535,
      "yüzlerce": 8536,
      "ebe": 8537,
      "Resmi": 8538,
      "Hast": 8539,
      "geliştirme": 8540,
      "bilet": 8541,
      "Sözleş": 8542,
      "CD": 8543,
      "lobal": 8544,
      "YA": 8545,
      "beslen": 8546,
      "KO": 8547,
      "nez": 8548,
      "cağım": 8549,
      "sed": 8550,
      "sağlayıcı": 8551,
      "şirketleri": 8552,
      "Kent": 8553,
      "ıklık": 8554,
      "ışıklık": 8555,
      "sh": 8556,
      "etmiştir": 8557,
      "keme": 8558,
      "olağan": 8559,
      "Cuma": 8560,
      "söylen": 8561,
      "Destek": 8562,
      "diniz": 8563,
      "paşa": 8564,
      "genişlet": 8565,
      "düğün": 8566,
      "Meslek": 8567,
      "diklerini": 8568,
      "Ömer": 8569,
      "kazanan": 8570,
      "yüzünden": 8571,
      "bayan": 8572,
      "gelişen": 8573,
      "eğine": 8574,
      "nis": 8575,
      "ulaşabil": 8576,
      "Galatas": 8577,
      "olduklarını": 8578,
      "etkileri": 8579,
      "harekete": 8580,
      "alat": 8581,
      "atu": 8582,
      "yönel": 8583,
      "dilek": 8584,
      "isyen": 8585,
      "verilerin": 8586,
      "tespiti": 8587,
      "yapması": 8588,
      "Gez": 8589,
      "sir": 8590,
      "Dair": 8591,
      "uf": 8592,
      "yalet": 8593,
      "İletişim": 8594,
      "ayn": 8595,
      "riski": 8596,
      "Türkiyeye": 8597,
      "tarayıcı": 8598,
      "Tayyip": 8599,
      "çekme": 8600,
      "yaratıcı": 8601,
      "bom": 8602,
      "Bilgi": 8603,
      "mavi": 8604,
      "cisi": 8605,
      "tetik": 8606,
      "ell": 8607,
      "kazandı": 8608,
      "tutul": 8609,
      "ilişkiler": 8610,
      "fırsatı": 8611,
      "emizin": 8612,
      "Telefon": 8613,
      "dinamik": 8614,
      "eyim": 8615,
      "Beşiktaş": 8616,
      "şub": 8617,
      "lıyoruz": 8618,
      "mevzuat": 8619,
      "tral": 8620,
      "platformu": 8621,
      "suretiyle": 8622,
      "illa": 8623,
      "meydan": 8624,
      "koruyucu": 8625,
      "gitmek": 8626,
      "49": 8627,
      "gelmiştir": 8628,
      "psikolojik": 8629,
      "altını": 8630,
      "olmaları": 8631,
      "vitamini": 8632,
      "ilmek": 8633,
      "çey": 8634,
      "gördük": 8635,
      "Yas": 8636,
      "hatt": 8637,
      "materyal": 8638,
      "buğ": 8639,
      "ayakkabı": 8640,
      "DV": 8641,
      "utin": 8642,
      "kurumlar": 8643,
      "Odası": 8644,
      "tanesi": 8645,
      "ahşap": 8646,
      "ışın": 8647,
      "yerleri": 8648,
      "parmak": 8649,
      "lamaktadır": 8650,
      "kenti": 8651,
      "zararlı": 8652,
      "tıktan": 8653,
      "yeten": 8654,
      "öylelikle": 8655,
      "05": 8656,
      "Tor": 8657,
      "ete": 8658,
      "Şek": 8659,
      "arkada": 8660,
      "Genellikle": 8661,
      "iti": 8662,
      "çalıştı": 8663,
      "alanlarında": 8664,
      "açma": 8665,
      "yaprak": 8666,
      "denir": 8667,
      "mosyon": 8668,
      "sigara": 8669,
      "değişimi": 8670,
      "yüzü": 8671,
      "otik": 8672,
      "veriyoruz": 8673,
      "moda": 8674,
      "niha": 8675,
      "yönünde": 8676,
      "devletin": 8677,
      "satıcı": 8678,
      "versiyon": 8679,
      "sül": 8680,
      "linik": 8681,
      "ED": 8682,
      "ste": 8683,
      "tımı": 8684,
      "elektrikli": 8685,
      "Mısır": 8686,
      "Doktor": 8687,
      "gereklidir": 8688,
      "depo": 8689,
      "karmaşık": 8690,
      "halkın": 8691,
      "Hakkında": 8692,
      "üyelik": 8693,
      "irti": 8694,
      "çapında": 8695,
      "Hind": 8696,
      "icra": 8697,
      "etiket": 8698,
      "kepenk": 8699,
      "yaşıyor": 8700,
      "Rüyada": 8701,
      "depolama": 8702,
      "Diyar": 8703,
      "görüşmeler": 8704,
      "taahhüt": 8705,
      "tepk": 8706,
      "larımızla": 8707,
      "Bahç": 8708,
      "likte": 8709,
      "müşterilerimize": 8710,
      "eyerek": 8711,
      "durumlar": 8712,
      "bedeli": 8713,
      "koşulları": 8714,
      "sektörü": 8715,
      "tabilir": 8716,
      "önümüzdeki": 8717,
      "güney": 8718,
      "layabilir": 8719,
      "evin": 8720,
      "itesi": 8721,
      "bağımlı": 8722,
      "Eki": 8723,
      "Na": 8724,
      "yolları": 8725,
      "desen": 8726,
      "Çift": 8727,
      "lıp": 8728,
      "Hasta": 8729,
      "yorumlar": 8730,
      "Aksi": 8731,
      "Is": 8732,
      "konuşan": 8733,
      "42": 8734,
      "edebiyat": 8735,
      "Bod": 8736,
      "led": 8737,
      "tifak": 8738,
      "şal": 8739,
      "bayram": 8740,
      "öykü": 8741,
      "çatışma": 8742,
      "ebiliyor": 8743,
      "toplumun": 8744,
      "Yaşam": 8745,
      "Süper": 8746,
      "SAT": 8747,
      "kıv": 8748,
      "protokol": 8749,
      "robot": 8750,
      "yolunda": 8751,
      "Tab": 8752,
      "hesabı": 8753,
      "üzdan": 8754,
      "ğinden": 8755,
      "yayı": 8756,
      "türleri": 8757,
      "Sigorta": 8758,
      "okulu": 8759,
      "oyunları": 8760,
      "Demokra": 8761,
      "yata": 8762,
      "kurulum": 8763,
      "landırma": 8764,
      "hayran": 8765,
      "kızı": 8766,
      "herkese": 8767,
      "esir": 8768,
      "isteyenler": 8769,
      "maksimum": 8770,
      "Yıldız": 8771,
      "verebilir": 8772,
      "burun": 8773,
      "yetersiz": 8774,
      "tiyat": 8775,
      "Oğ": 8776,
      "unutmayın": 8777,
      "Rapor": 8778,
      "arayan": 8779,
      "onavirüs": 8780,
      "doğanın": 8781,
      "görüntül": 8782,
      "Twitter": 8783,
      "karşılaştır": 8784,
      "yılları": 8785,
      "Plat": 8786,
      "malzemeler": 8787,
      "niş": 8788,
      "Lüt": 8789,
      "protein": 8790,
      "sembol": 8791,
      "çor": 8792,
      "sk": 8793,
      "lığımız": 8794,
      "oğlunun": 8795,
      "ırk": 8796,
      "inanç": 8797,
      "görüyoruz": 8798,
      "Hemen": 8799,
      "Ege": 8800,
      "dili": 8801,
      "Hizmetleri": 8802,
      "gon": 8803,
      "yken": 8804,
      "195": 8805,
      "çağı": 8806,
      "Mühendis": 8807,
      "almıştır": 8808,
      "karın": 8809,
      "yılının": 8810,
      "emeyen": 8811,
      "birimi": 8812,
      "arıyor": 8813,
      "ebilmektedir": 8814,
      "edilmelidir": 8815,
      "imum": 8816,
      "Lim": 8817,
      "şirketler": 8818,
      "BA": 8819,
      "Cov": 8820,
      "sup": 8821,
      "kazanmak": 8822,
      "meme": 8823,
      "alesef": 8824,
      "Bebek": 8825,
      "latı": 8826,
      "Art": 8827,
      "çeşitleri": 8828,
      "Mez": 8829,
      "piyasaya": 8830,
      "markası": 8831,
      "yapay": 8832,
      "Min": 8833,
      "sürücü": 8834,
      "Bazen": 8835,
      "valtı": 8836,
      "Temel": 8837,
      "şans": 8838,
      "göğ": 8839,
      "Değişik": 8840,
      "tiyatro": 8841,
      "Pas": 8842,
      "ekstra": 8843,
      "Sez": 8844,
      "özgürlük": 8845,
      "çal": 8846,
      "deneyimli": 8847,
      "disip": 8848,
      "vitamin": 8849,
      "ysa": 8850,
      "eşsiz": 8851,
      "mücade": 8852,
      "seyr": 8853,
      "Hüküm": 8854,
      "duyu": 8855,
      "hapis": 8856,
      "kaydetti": 8857,
      "durumun": 8858,
      "aşamasında": 8859,
      "evinde": 8860,
      "cezası": 8861,
      "ızın": 8862,
      "diven": 8863,
      "yapın": 8864,
      "işini": 8865,
      "Yah": 8866,
      "editör": 8867,
      "Sey": 8868,
      "ildiğini": 8869,
      "beklenen": 8870,
      "çik": 8871,
      "soft": 8872,
      "babası": 8873,
      "çevres": 8874,
      "yağmur": 8875,
      "İbrahim": 8876,
      "Kaç": 8877,
      "kaynaklanan": 8878,
      "sunum": 8879,
      "çıkacak": 8880,
      "layınız": 8881,
      "hayatın": 8882,
      "olmaktan": 8883,
      "istasyon": 8884,
      "festival": 8885,
      "sitede": 8886,
      "istin": 8887,
      "sahipleri": 8888,
      "Not": 8889,
      "atöl": 8890,
      "IZ": 8891,
      "alüminyum": 8892,
      "isin": 8893,
      "çeşitliliği": 8894,
      "SA": 8895,
      "müşteriler": 8896,
      "etmez": 8897,
      "bazıları": 8898,
      "sürük": 8899,
      "Far": 8900,
      "Ata": 8901,
      "ölçek": 8902,
      "Başvuru": 8903,
      "düşen": 8904,
      "vermekteyiz": 8905,
      "Başbakan": 8906,
      "tikten": 8907,
      "Covid": 8908,
      "Çevre": 8909,
      "içe": 8910,
      "eyebilir": 8911,
      "telif": 8912,
      "önlemek": 8913,
      "sorumluluğu": 8914,
      "sendik": 8915,
      "sinyal": 8916,
      "Yav": 8917,
      "Tabii": 8918,
      "kahraman": 8919,
      "kısmında": 8920,
      "Mi": 8921,
      "yahut": 8922,
      "Güç": 8923,
      "izlem": 8924,
      "sitemizde": 8925,
      "tamamlan": 8926,
      "Proje": 8927,
      "urda": 8928,
      "çanta": 8929,
      "larımızdan": 8930,
      "başlamış": 8931,
      "edeceğiz": 8932,
      "Kas": 8933,
      "noktasında": 8934,
      "trend": 8935,
      "yöntemleri": 8936,
      "Sc": 8937,
      "nakit": 8938,
      "imalat": 8939,
      "Süley": 8940,
      "sahipliği": 8941,
      "jyen": 8942,
      "hayatına": 8943,
      "denk": 8944,
      "Rum": 8945,
      "sizlerin": 8946,
      "hariç": 8947,
      "kaf": 8948,
      "ayrıntılı": 8949,
      "anlaya": 8950,
      "Saat": 8951,
      "biber": 8952,
      "tali": 8953,
      "utube": 8954,
      "Çanak": 8955,
      "gidiyor": 8956,
      "perde": 8957,
      "Cor": 8958,
      "ure": 8959,
      "adıyla": 8960,
      "aracın": 8961,
      "Grup": 8962,
      "Ac": 8963,
      "ülü": 8964,
      "üb": 8965,
      "Yalnız": 8966,
      "anlayışı": 8967,
      "yapılıyor": 8968,
      "altındaki": 8969,
      "terapi": 8970,
      "deme": 8971,
      "kaygı": 8972,
      "Servis": 8973,
      "yapmayı": 8974,
      "Geçen": 8975,
      "kritik": 8976,
      "olmanın": 8977,
      "insel": 8978,
      "bulut": 8979,
      "düzenleme": 8980,
      "Herhangi": 8981,
      "oluşturur": 8982,
      "etkiler": 8983,
      "Anal": 8984,
      "işveren": 8985,
      "anlatan": 8986,
      "tün": 8987,
      "kaş": 8988,
      "başlıklı": 8989,
      "yürürlüğe": 8990,
      "gayret": 8991,
      "Koç": 8992,
      "Selç": 8993,
      "yıkama": 8994,
      "satıl": 8995,
      "Stan": 8996,
      "olmasa": 8997,
      "Teş": 8998,
      "danın": 8999,
      "görülmektedir": 9000,
      "Diz": 9001,
      "Çağ": 9002,
      "sırt": 9003,
      "yaptığınız": 9004,
      "tekli": 9005,
      "evrak": 9006,
      "memektedir": 9007,
      "Sİ": 9008,
      "atuvar": 9009,
      "dolan": 9010,
      "ziyaretç": 9011,
      "bölgeye": 9012,
      "imini": 9013,
      "iğin": 9014,
      "saati": 9015,
      "zamanla": 9016,
      "etkileşim": 9017,
      "başlayacak": 9018,
      "Kuş": 9019,
      "muhafaza": 9020,
      "randev": 9021,
      "pozitif": 9022,
      "IŞ": 9023,
      "tom": 9024,
      "tikçe": 9025,
      "bilgilerini": 9026,
      "olmanız": 9027,
      "değişen": 9028,
      "masaj": 9029,
      "şehrin": 9030,
      "telefonu": 9031,
      "açtı": 9032,
      "telefonunuz": 9033,
      "Diyarbakır": 9034,
      "Diş": 9035,
      "cik": 9036,
      "Mat": 9037,
      "rengi": 9038,
      "anket": 9039,
      "Nelerdir": 9040,
      "inceleme": 9041,
      "arap": 9042,
      "gözden": 9043,
      "zamanlar": 9044,
      "Güncel": 9045,
      "Ceza": 9046,
      "sön": 9047,
      "eceksiniz": 9048,
      "itibarıyla": 9049,
      "olmasıdır": 9050,
      "duktan": 9051,
      "je": 9052,
      "ekonomi": 9053,
      "Hu": 9054,
      "lon": 9055,
      "bilinmektedir": 9056,
      "Euro": 9057,
      "yitir": 9058,
      "üstlen": 9059,
      "Satış": 9060,
      "mol": 9061,
      "Dağ": 9062,
      "kısaca": 9063,
      "devir": 9064,
      "Milletvekili": 9065,
      "programları": 9066,
      "kaynakları": 9067,
      "koca": 9068,
      "üzeri": 9069,
      "İt": 9070,
      "org": 9071,
      "dönemlerde": 9072,
      "bekleniyor": 9073,
      "Hakları": 9074,
      "Ordu": 9075,
      "gelip": 9076,
      "gid": 9077,
      "başvurusu": 9078,
      "Otel": 9079,
      "inizden": 9080,
      "ney": 9081,
      "sertifika": 9082,
      "masıdır": 9083,
      "ks": 9084,
      "zorlu": 9085,
      "format": 9086,
      "tarafında": 9087,
      "bağış": 9088,
      "yanına": 9089,
      "yılına": 9090,
      "Danışman": 9091,
      "Sektör": 9092,
      "zeka": 9093,
      "amuk": 9094,
      "tablet": 9095,
      "olmakla": 9096,
      "Orman": 9097,
      "Taşı": 9098,
      "Ço": 9099,
      "seviyede": 9100,
      "mantık": 9101,
      "kontrolü": 9102,
      "PKK": 9103,
      "eğinin": 9104,
      "kısmını": 9105,
      "yardımıyla": 9106,
      "derg": 9107,
      "geldiğini": 9108,
      "som": 9109,
      "dolabı": 9110,
      "Süleyman": 9111,
      "tuş": 9112,
      "İtalya": 9113,
      "dışındaki": 9114,
      "alkol": 9115,
      "akademik": 9116,
      "Psik": 9117,
      "koku": 9118,
      "şahıs": 9119,
      "duyurdu": 9120,
      "asgari": 9121,
      "Galatasaray": 9122,
      "şiv": 9123,
      "Azerbaycan": 9124,
      "veyn": 9125,
      "Lin": 9126,
      "Karadeniz": 9127,
      "verilmektedir": 9128,
      "ziya": 9129,
      "Sh": 9130,
      "topra": 9131,
      "girer": 9132,
      "duygusal": 9133,
      "Servisi": 9134,
      "ulaştı": 9135,
      "aralarında": 9136,
      "İçer": 9137,
      "yoğ": 9138,
      "rüzgar": 9139,
      "fuar": 9140,
      "elan": 9141,
      "lini": 9142,
      "sistemini": 9143,
      "çoğunlukla": 9144,
      "diplo": 9145,
      "ji": 9146,
      "kullanır": 9147,
      "2007": 9148,
      "ester": 9149,
      "tüy": 9150,
      "Kiralama": 9151,
      "sevk": 9152,
      "EM": 9153,
      "isa": 9154,
      "feri": 9155,
      "Rama": 9156,
      "radyo": 9157,
      "emniyet": 9158,
      "ülür": 9159,
      "sektörde": 9160,
      "akla": 9161,
      "cay": 9162,
      "koleksiyon": 9163,
      "ayrım": 9164,
      "adaki": 9165,
      "laşması": 9166,
      "hızlandır": 9167,
      "çıkmış": 9168,
      "Afrika": 9169,
      "yazık": 9170,
      "özgü": 9171,
      "Karar": 9172,
      "yetişkin": 9173,
      "liğiyle": 9174,
      "üyeli": 9175,
      "09": 9176,
      "testi": 9177,
      "İd": 9178,
      "ıyordu": 9179,
      "acağını": 9180,
      "sporcu": 9181,
      "Tube": 9182,
      "hitap": 9183,
      "250": 9184,
      "firmaların": 9185,
      "mekle": 9186,
      "lamayı": 9187,
      "gördüğü": 9188,
      "leştirme": 9189,
      "lamalar": 9190,
      "araçlar": 9191,
      "devreye": 9192,
      "sunmak": 9193,
      "Face": 9194,
      "kombin": 9195,
      "Gençlik": 9196,
      "Tür": 9197,
      "forex": 9198,
      "isiz": 9199,
      "eşliğinde": 9200,
      "masyon": 9201,
      "elin": 9202,
      "kaba": 9203,
      "sessiz": 9204,
      "gelerek": 9205,
      "ükleer": 9206,
      "aydınlatma": 9207,
      "salg": 9208,
      "Kurt": 9209,
      "Değer": 9210,
      "bine": 9211,
      "korunması": 9212,
      "Üyesi": 9213,
      "payı": 9214,
      "danışmanlık": 9215,
      "Hızlı": 9216,
      "pahalı": 9217,
      "araj": 9218,
      "banın": 9219,
      "Micro": 9220,
      "talebi": 9221,
      "ışlı": 9222,
      "hızı": 9223,
      "traf": 9224,
      "work": 9225,
      "mim": 9226,
      "Lon": 9227,
      "tescil": 9228,
      "Zaten": 9229,
      "ihal": 9230,
      "bük": 9231,
      "egen": 9232,
      "kombi": 9233,
      "geçerlidir": 9234,
      "doğur": 9235,
      "beraberinde": 9236,
      "takımı": 9237,
      "Hüseyin": 9238,
      "işletim": 9239,
      "Kurumu": 9240,
      "Yapılır": 9241,
      "mamak": 9242,
      "Şen": 9243,
      "PD": 9244,
      "sunulmaktadır": 9245,
      "müte": 9246,
      "halkı": 9247,
      "suyun": 9248,
      "Veri": 9249,
      "Hareket": 9250,
      "41": 9251,
      "İlç": 9252,
      "unma": 9253,
      "kararlı": 9254,
      "anlamı": 9255,
      "izleyic": 9256,
      "organik": 9257,
      "leket": 9258,
      "ülkelerin": 9259,
      "olabilmektedir": 9260,
      "alandır": 9261,
      "lemektedir": 9262,
      "Belki": 9263,
      "asansör": 9264,
      "konular": 9265,
      "halen": 9266,
      "fazlası": 9267,
      "Toplantı": 9268,
      "kov": 9269,
      "şartı": 9270,
      "Dikkat": 9271,
      "ilerimizin": 9272,
      "sıcaklık": 9273,
      "tın": 9274,
      "Dar": 9275,
      "Model": 9276,
      "istis": 9277,
      "Van": 9278,
      "egemen": 9279,
      "ertel": 9280,
      "seven": 9281,
      "Kontrol": 9282,
      "vazgeçilmez": 9283,
      "dalg": 9284,
      "testo": 9285,
      "Oysa": 9286,
      "ondan": 9287,
      "günler": 9288,
      "Örgü": 9289,
      "Enstit": 9290,
      "İnşa": 9291,
      "tehlikeli": 9292,
      "çıkmaktadır": 9293,
      "OK": 9294,
      "ilde": 9295,
      "Tedav": 9296,
      "talı": 9297,
      "lığından": 9298,
      "lamaları": 9299,
      "brek": 9300,
      "çekiyor": 9301,
      "teknolojisi": 9302,
      "Kocaeli": 9303,
      "Kayı": 9304,
      "enize": 9305,
      "kullanıma": 9306,
      "kg": 9307,
      "görüle": 9308,
      "güzellik": 9309,
      "lus": 9310,
      "hakkındaki": 9311,
      "cın": 9312,
      "mezar": 9313,
      "geliştirmek": 9314,
      "dılar": 9315,
      "eğil": 9316,
      "mesle": 9317,
      "UY": 9318,
      "görülüyor": 9319,
      "güncellem": 9320,
      "halat": 9321,
      "ayrimen": 9322,
      "İndir": 9323,
      "şehit": 9324,
      "yıldan": 9325,
      "acağınız": 9326,
      "lanın": 9327,
      "getiriyor": 9328,
      "ayrimenkul": 9329,
      "almayı": 9330,
      "değişiklikler": 9331,
      "Ede": 9332,
      "öğrenme": 9333,
      "sağladığı": 9334,
      "tarzı": 9335,
      "evlilik": 9336,
      "all": 9337,
      "kalıp": 9338,
      "Tok": 9339,
      "Herkes": 9340,
      "istler": 9341,
      "KAR": 9342,
      "sistemine": 9343,
      "NAT": 9344,
      "çocukları": 9345,
      "istenen": 9346,
      "belirtildi": 9347,
      "direkt": 9348,
      "kurmak": 9349,
      "fek": 9350,
      "kayıtlı": 9351,
      "ght": 9352,
      "Sistemi": 9353,
      "Bodrum": 9354,
      "1000": 9355,
      "Dis": 9356,
      "sanay": 9357,
      "Kalit": 9358,
      "azından": 9359,
      "dedim": 9360,
      "verilecek": 9361,
      "Fenerbahçe": 9362,
      "içerisine": 9363,
      "satım": 9364,
      "ilişkileri": 9365,
      "çamaşır": 9366,
      "düşünür": 9367,
      "şeye": 9368,
      "885": 9369,
      "Rad": 9370,
      "Sun": 9371,
      "silin": 9372,
      "Anayasa": 9373,
      "dekorasyon": 9374,
      "teşkil": 9375,
      "ınır": 9376,
      "bisiklet": 9377,
      "bizimle": 9378,
      "özet": 9379,
      "eşlik": 9380,
      "ros": 9381,
      "Ramazan": 9382,
      "kaşı": 9383,
      "cük": 9384,
      "sizlerle": 9385,
      "Suriy": 9386,
      "çalışıyoruz": 9387,
      "Satın": 9388,
      "içecek": 9389,
      "ekmek": 9390,
      "Günlük": 9391,
      "Size": 9392,
      "yaşadı": 9393,
      "dolarlık": 9394,
      "abon": 9395,
      "ildiğinde": 9396,
      "01": 9397,
      "ibar": 9398,
      "manevi": 9399,
      "wer": 9400,
      "sağlanır": 9401,
      "sevg": 9402,
      "und": 9403,
      "58": 9404,
      "beklem": 9405,
      "gebelik": 9406,
      "sağlayacaktır": 9407,
      "Türkiyedeki": 9408,
      "değildi": 9409,
      "çalışmalarına": 9410,
      "açan": 9411,
      "dırıcı": 9412,
      "atmak": 9413,
      "diğine": 9414,
      "topluluk": 9415,
      "göv": 9416,
      "yaj": 9417,
      "bağlan": 9418,
      "Soğ": 9419,
      "doma": 9420,
      "titiz": 9421,
      "macer": 9422,
      "ortamında": 9423,
      "bildiği": 9424,
      "02": 9425,
      "yükümlülük": 9426,
      "YouTube": 9427,
      "sesi": 9428,
      "land": 9429,
      "bacak": 9430,
      "Hollanda": 9431,
      "tamamla": 9432,
      "ceğim": 9433,
      "Sizin": 9434,
      "taraftan": 9435,
      "priz": 9436,
      "cüzdan": 9437,
      "arasına": 9438,
      "hastanın": 9439,
      "rat": 9440,
      "İster": 9441,
      "ihmal": 9442,
      "gerekirse": 9443,
      "He": 9444,
      "taze": 9445,
      "olmasının": 9446,
      "nitelikli": 9447,
      "başlamıştır": 9448,
      "teb": 9449,
      "umartesi": 9450,
      "Tanrı": 9451,
      "getirdiği": 9452,
      "gazetec": 9453,
      "vol": 9454,
      "nazar": 9455,
      "evr": 9456,
      "köken": 9457,
      "geçerek": 9458,
      "başladığı": 9459,
      "misiniz": 9460,
      "uzaktan": 9461,
      "kilometre": 9462,
      "andan": 9463,
      "faf": 9464,
      "caz": 9465,
      "A±": 9466,
      "Soru": 9467,
      "Mac": 9468,
      "sayısının": 9469,
      "ederler": 9470,
      "hijyen": 9471,
      "melerine": 9472,
      "istifa": 9473,
      "abı": 9474,
      "77": 9475,
      "dahilinde": 9476,
      "Cadde": 9477,
      "yabilirsiniz": 9478,
      "gidip": 9479,
      "kişiyi": 9480,
      "uru": 9481,
      "here": 9482,
      "ettikleri": 9483,
      "daima": 9484,
      "zirve": 9485,
      "HDP": 9486,
      "Yıldır": 9487,
      "Abd": 9488,
      "çekin": 9489,
      "ilemez": 9490,
      "getirir": 9491,
      "ediniz": 9492,
      "larınızda": 9493,
      "esnaf": 9494,
      "yapılarak": 9495,
      "TA": 9496,
      "sanki": 9497,
      "medyum": 9498,
      "Emniyet": 9499,
      "Emek": 9500,
      "istenilen": 9501,
      "PC": 9502,
      "bozul": 9503,
      "ağırlık": 9504,
      "haklı": 9505,
      "taşıyor": 9506,
      "yorgun": 9507,
      "bilgiyi": 9508,
      "liste": 9509,
      "Ala": 9510,
      "lenin": 9511,
      "düzgün": 9512,
      "Dışişleri": 9513,
      "özellikler": 9514,
      "kullanmaya": 9515,
      "haberdar": 9516,
      "kası": 9517,
      "cilerin": 9518,
      "Ec": 9519,
      "dıkça": 9520,
      "demokratik": 9521,
      "promosyon": 9522,
      "Öyle": 9523,
      "600": 9524,
      "esince": 9525,
      "ÜR": 9526,
      "tılı": 9527,
      "üldü": 9528,
      "43": 9529,
      "ull": 9530,
      "araz": 9531,
      "şen": 9532,
      "ters": 9533,
      "kınma": 9534,
      "gereğ": 9535,
      "merkezine": 9536,
      "geride": 9537,
      "geldiğinde": 9538,
      "bran": 9539,
      "Üzer": 9540,
      "direnç": 9541,
      "haftalık": 9542,
      "faaliyetleri": 9543,
      "ilip": 9544,
      "Mağ": 9545,
      "gönderilen": 9546,
      "cüml": 9547,
      "Kullanım": 9548,
      "anlattı": 9549,
      "ağrısı": 9550,
      "Usta": 9551,
      "gelebilir": 9552,
      "gözaltına": 9553,
      "villa": 9554,
      "haftada": 9555,
      "Teknoloj": 9556,
      "Lİ": 9557,
      "içinden": 9558,
      "lezzetli": 9559,
      "Lütfen": 9560,
      "Yorum": 9561,
      "antik": 9562,
      "ördün": 9563,
      "ailen": 9564,
      "eyh": 9565,
      "çıkması": 9566,
      "merkezinde": 9567,
      "Instagram": 9568,
      "buldu": 9569,
      "Geçtiğimiz": 9570,
      "alınacak": 9571,
      "08": 9572,
      "Tama": 9573,
      "mediğini": 9574,
      "çök": 9575,
      "iv": 9576,
      "ect": 9577,
      "Vide": 9578,
      "konsep": 9579,
      "banyo": 9580,
      "bozukluk": 9581,
      "Fik": 9582,
      "ag": 9583,
      "idir": 9584,
      "dakikada": 9585,
      "abilmektedir": 9586,
      "alama": 9587,
      "çın": 9588,
      "şehri": 9589,
      "ate": 9590,
      "lir": 9591,
      "vermeden": 9592,
      "cağımız": 9593,
      "Tüket": 9594,
      "föy": 9595,
      "Tut": 9596,
      "üğün": 9597,
      "naz": 9598,
      "oturum": 9599,
      "örü": 9600,
      "uzay": 9601,
      "ölçüm": 9602,
      "Vakfı": 9603,
      "kapatıl": 9604,
      "What": 9605,
      "dolay": 9606,
      "evvel": 9607,
      "maddeler": 9608,
      "Mor": 9609,
      "malarını": 9610,
      "ilti": 9611,
      "lanmasına": 9612,
      "arttı": 9613,
      "alerj": 9614,
      "karanlık": 9615,
      "yardımı": 9616,
      "wn": 9617,
      "egzersiz": 9618,
      "eleme": 9619,
      "saatte": 9620,
      "şifr": 9621,
      "gördü": 9622,
      "bilinir": 9623,
      "ica": 9624,
      "Apa": 9625,
      "karde": 9626,
      "Grubu": 9627,
      "örtü": 9628,
      "Kripto": 9629,
      "oluşmaktadır": 9630,
      "alınız": 9631,
      "ihtiyaçları": 9632,
      "değişikliği": 9633,
      "Çık": 9634,
      "ortamı": 9635,
      "Paz": 9636,
      "liğinden": 9637,
      "yoktu": 9638,
      "ektif": 9639,
      "konaklama": 9640,
      "ettim": 9641,
      "akım": 9642,
      "evine": 9643,
      "yaya": 9644,
      "ble": 9645,
      "olurken": 9646,
      "tive": 9647,
      "istikrar": 9648,
      "mesleki": 9649,
      "kalmak": 9650,
      "oid": 9651,
      "haberler": 9652,
      "listesi": 9653,
      "kun": 9654,
      "Elbette": 9655,
      "nar": 9656,
      "planda": 9657,
      "ünür": 9658,
      "gözük": 9659,
      "çeşidi": 9660,
      "KA": 9661,
      "teker": 9662,
      "Elektronik": 9663,
      "yarın": 9664,
      "merkezli": 9665,
      "lıktan": 9666,
      "sorumluluğ": 9667,
      "gösterdiği": 9668,
      "kişehir": 9669,
      "düşündüğ": 9670,
      "tasarlanmış": 9671,
      "yapıştır": 9672,
      "gücünü": 9673,
      "sertifik": 9674,
      "Boğaz": 9675,
      "ürünlerini": 9676,
      "Akadem": 9677,
      "illi": 9678,
      "bulama": 9679,
      "eyalet": 9680,
      "kana": 9681,
      "sürecini": 9682,
      "oranları": 9683,
      "katılımı": 9684,
      "cinsiyet": 9685,
      "imizle": 9686,
      "şampiyon": 9687,
      "zorundadır": 9688,
      "planı": 9689,
      "hain": 9690,
      "medyada": 9691,
      "vah": 9692,
      "seyi": 9693,
      "Kut": 9694,
      "bebeğ": 9695,
      "cumhur": 9696,
      "Gıda": 9697,
      "filmin": 9698,
      "Roma": 9699,
      "Akıl": 9700,
      "boşluk": 9701,
      "Fet": 9702,
      "lerdi": 9703,
      "sonsuz": 9704,
      "öt": 9705,
      "ürünümüz": 9706,
      "karşın": 9707,
      "tarihten": 9708,
      "sektörünün": 9709,
      "Marka": 9710,
      "Çoğu": 9711,
      "koyu": 9712,
      "büyüklüğ": 9713,
      "olduğunun": 9714,
      "fo": 9715,
      "kırık": 9716,
      "yapıp": 9717,
      "etkileyen": 9718,
      "iliğinden": 9719,
      "Esen": 9720,
      "Soy": 9721,
      "tuğu": 9722,
      "tohum": 9723,
      "mede": 9724,
      "neticesinde": 9725,
      "olunca": 9726,
      "yeterince": 9727,
      "darbe": 9728,
      "Başarı": 9729,
      "süper": 9730,
      "doktora": 9731,
      "ektörü": 9732,
      "Tran": 9733,
      "firmanın": 9734,
      "bulunmak": 9735,
      "Sakarya": 9736,
      "UM": 9737,
      "Kaf": 9738,
      "Fu": 9739,
      "York": 9740,
      "İla": 9741,
      "ıldığını": 9742,
      "dere": 9743,
      "ilanları": 9744,
      "hu": 9745,
      "özgün": 9746,
      "Modern": 9747,
      "yerleşim": 9748,
      "artman": 9749,
      "uygulanması": 9750,
      "gerektiren": 9751,
      "ılacak": 9752,
      "ojistik": 9753,
      "şansı": 9754,
      "Yür": 9755,
      "übü": 9756,
      "reng": 9757,
      "cerrahi": 9758,
      "ikili": 9759,
      "koordin": 9760,
      "dondur": 9761,
      "anlamak": 9762,
      "çıkarmak": 9763,
      "hayatında": 9764,
      "görebilirsiniz": 9765,
      "sistemin": 9766,
      "çözümü": 9767,
      "filmler": 9768,
      "hormon": 9769,
      "tutan": 9770,
      "fikri": 9771,
      "evler": 9772,
      "şirketlerin": 9773,
      "Özgür": 9774,
      "Mimar": 9775,
      "doy": 9776,
      "opsiyon": 9777,
      "gayet": 9778,
      "kurulmuş": 9779,
      "amaçla": 9780,
      "tutmak": 9781,
      "izmin": 9782,
      "Pay": 9783,
      "ülkeye": 9784,
      "Bölge": 9785,
      "referans": 9786,
      "BMM": 9787,
      "albüm": 9788,
      "konsol": 9789,
      "hanım": 9790,
      "dağıtım": 9791,
      "Eskişehir": 9792,
      "sevgi": 9793,
      "labor": 9794,
      "öf": 9795,
      "ane": 9796,
      "defter": 9797,
      "atılan": 9798,
      "yönlü": 9799,
      "ihtiyaçlarını": 9800,
      "abilmek": 9801,
      "kaçak": 9802,
      "kulüp": 9803,
      "Zor": 9804,
      "Büy": 9805,
      "Qu": 9806,
      "yaşamak": 9807,
      "konforlu": 9808,
      "balkon": 9809,
      "atmos": 9810,
      "edecektir": 9811,
      "tezi": 9812,
      "etrafında": 9813,
      "sevgil": 9814,
      "Yabancı": 9815,
      "adi": 9816,
      "Taraf": 9817,
      "Karak": 9818,
      "tıldı": 9819,
      "sınırları": 9820,
      "Sp": 9821,
      "tüketici": 9822,
      "abiliyor": 9823,
      "Şanlı": 9824,
      "ediğini": 9825,
      "yuvar": 9826,
      "dönemin": 9827,
      "görmüş": 9828,
      "eks": 9829,
      "dengel": 9830,
      "seçin": 9831,
      "kahvaltı": 9832,
      "Yaklaşık": 9833,
      "İmparator": 9834,
      "soka": 9835,
      "lerimizde": 9836,
      "dolara": 9837,
      "çuk": 9838,
      "mutfa": 9839,
      "eleriyle": 9840,
      "arzu": 9841,
      "Ola": 9842,
      "uygundur": 9843,
      "engelli": 9844,
      "redde": 9845,
      "arasındadır": 9846,
      "aki": 9847,
      "Türkç": 9848,
      "muhtemelen": 9849,
      "kullanın": 9850,
      "eceğim": 9851,
      "yayımlanan": 9852,
      "artması": 9853,
      "dostu": 9854,
      "Hayvan": 9855,
      "Görün": 9856,
      "64": 9857,
      "işlemlerini": 9858,
      "stratejik": 9859,
      "giyim": 9860,
      "Arkadaş": 9861,
      "yüklen": 9862,
      "irade": 9863,
      "TBMM": 9864,
      "vara": 9865,
      "Futbol": 9866,
      "Ven": 9867,
      "cıların": 9868,
      "haberi": 9869,
      "bela": 9870,
      "Gam": 9871,
      "Anne": 9872,
      "odası": 9873,
      "usuf": 9874,
      "Profesyonel": 9875,
      "arayınız": 9876,
      "hazırlanmış": 9877,
      "hang": 9878,
      "maçı": 9879,
      "çevresinde": 9880,
      "çalıştığı": 9881,
      "ülkelerde": 9882,
      "Korun": 9883,
      "Cer": 9884,
      "ilerinde": 9885,
      "görevini": 9886,
      "lise": 9887,
      "Yunanistan": 9888,
      "lanmaya": 9889,
      "anma": 9890,
      "ilham": 9891,
      "ahmet": 9892,
      "Kİ": 9893,
      "mağaz": 9894,
      "iyata": 9895,
      "karşılığında": 9896,
      "hakkına": 9897,
      "imzala": 9898,
      "Ülkemizde": 9899,
      "use": 9900,
      "diyabet": 9901,
      "ph": 9902,
      "asa": 9903,
      "nci": 9904,
      "ötürü": 9905,
      "Tarihi": 9906,
      "oluşturulan": 9907,
      "tisiz": 9908,
      "bilmeniz": 9909,
      "oyunlar": 9910,
      "lanmaz": 9911,
      "günleri": 9912,
      "muhalef": 9913,
      "ımızdan": 9914,
      "belirgin": 9915,
      "AF": 9916,
      "göstermek": 9917,
      "Merhaba": 9918,
      "yolunu": 9919,
      "sayfamız": 9920,
      "uncu": 9921,
      "saatlerinde": 9922,
      "entegre": 9923,
      "tuval": 9924,
      "fabrik": 9925,
      "Cil": 9926,
      "inizle": 9927,
      "geçebilirsiniz": 9928,
      "sahne": 9929,
      "sigor": 9930,
      "John": 9931,
      "ula": 9932,
      "memnuniyeti": 9933,
      "lüks": 9934,
      "kalabalık": 9935,
      "emekli": 9936,
      "Kılıçdar": 9937,
      "tutum": 9938,
      "2005": 9939,
      "örneği": 9940,
      "Birinci": 9941,
      "vermesi": 9942,
      "içerikleri": 9943,
      "olursunuz": 9944,
      "bunlara": 9945,
      "Rusyanın": 9946,
      "kurgu": 9947,
      "Hafta": 9948,
      "hamil": 9949,
      "kapak": 9950,
      "lerinizin": 9951,
      "açmak": 9952,
      "Microsoft": 9953,
      "pandemi": 9954,
      "müşterilerimizin": 9955,
      "maddenin": 9956,
      "beklet": 9957,
      "canlandır": 9958,
      "adr": 9959,
      "kalitesini": 9960,
      "dernek": 9961,
      "milyonlarca": 9962,
      "gelişme": 9963,
      "Takım": 9964,
      "yabilir": 9965,
      "120": 9966,
      "anılan": 9967,
      "sandal": 9968,
      "hizmete": 9969,
      "Ortak": 9970,
      "eyici": 9971,
      "karşılıklı": 9972,
      "Engel": 9973,
      "tazminat": 9974,
      "Vat": 9975,
      "kısmen": 9976,
      "adresine": 9977,
      "Programı": 9978,
      "3D": 9979,
      "işlemini": 9980,
      "Oper": 9981,
      "Sta": 9982,
      "ladığınız": 9983,
      "yapacağınız": 9984,
      "hareketli": 9985,
      "kaşığı": 9986,
      "Boy": 9987,
      "almanız": 9988,
      "tecrübeli": 9989,
      "Str": 9990,
      "aşamada": 9991,
      "basınç": 9992,
      "işbu": 9993,
[...]
